{"!":0,"\"":1,"#":2,"$":3,"%":4,"&":5,"'":6,"(":7,")":8,"*":9,"+":10,",":11,"-":12,".":13,"/":14,"0":15,"1":16,"2":17,"3":18,"4":19,"5":20,"6":21,"7":22,"8":23,"9":24,":":25,";":26,"<":27,"=":28,">":29,"?":30,"@":31,"A":32,"B":33,"C":34,"D":35,"E":36,"F":37,"G":38,"H":39,"I":40,"J":41,"K":42,"L":43,"M":44,"N":45,"O":46,"P":47,"Q":48,"R":49,"S":50,"T":51,"U":52,"V":53,"W":54,"X":55,"Y":56,"Z":57,"[":58,"\\":59,"]":60,"^":61,"_":62,"`":63,"a":64,"b":65,"c":66,"d":67,"e":68,"f":69,"g":70,"h":71,"i":72,"j":73,"k":74,"l":75,"m":76,"n":77,"o":78,"p":79,"q":80,"r":81,"s":82,"t":83,"u":84,"v":85,"w":86,"x":87,"y":88,"z":89,"{":90,"|":91,"}":92,"~":93,"¡":94,"¢":95,"£":96,"¤":97,"¥":98,"¦":99,"§":100,"¨":101,"©":102,"ª":103,"«":104,"¬":105,"®":106,"¯":107,"°":108,"±":109,"²":110,"³":111,"´":112,"µ":113,"¶":114,"·":115,"¸":116,"¹":117,"º":118,"»":119,"¼":120,"½":121,"¾":122,"¿":123,"À":124,"Á":125,"Â":126,"Ã":127,"Ä":128,"Å":129,"Æ":130,"Ç":131,"È":132,"É":133,"Ê":134,"Ë":135,"Ì":136,"Í":137,"Î":138,"Ï":139,"Ð":140,"Ñ":141,"Ò":142,"Ó":143,"Ô":144,"Õ":145,"Ö":146,"×":147,"Ø":148,"Ù":149,"Ú":150,"Û":151,"Ü":152,"Ý":153,"Þ":154,"ß":155,"à":156,"á":157,"â":158,"ã":159,"ä":160,"å":161,"æ":162,"ç":163,"è":164,"é":165,"ê":166,"ë":167,"ì":168,"í":169,"î":170,"ï":171,"ð":172,"ñ":173,"ò":174,"ó":175,"ô":176,"õ":177,"ö":178,"÷":179,"ø":180,"ù":181,"ú":182,"û":183,"ü":184,"ý":185,"þ":186,"ÿ":187,"Ā":188,"ā":189,"Ă":190,"ă":191,"Ą":192,"ą":193,"Ć":194,"ć":195,"Ĉ":196,"ĉ":197,"Ċ":198,"ċ":199,"Č":200,"č":201,"Ď":202,"ď":203,"Đ":204,"đ":205,"Ē":206,"ē":207,"Ĕ":208,"ĕ":209,"Ė":210,"ė":211,"Ę":212,"ę":213,"Ě":214,"ě":215,"Ĝ":216,"ĝ":217,"Ğ":218,"ğ":219,"Ġ":220,"ġ":221,"Ģ":222,"ģ":223,"Ĥ":224,"ĥ":225,"Ħ":226,"ħ":227,"Ĩ":228,"ĩ":229,"Ī":230,"ī":231,"Ĭ":232,"ĭ":233,"Į":234,"į":235,"İ":236,"ı":237,"Ĳ":238,"ĳ":239,"Ĵ":240,"ĵ":241,"Ķ":242,"ķ":243,"ĸ":244,"Ĺ":245,"ĺ":246,"Ļ":247,"ļ":248,"Ľ":249,"ľ":250,"Ŀ":251,"ŀ":252,"Ł":253,"ł":254,"Ń":255,"čĊ":256,"Ġt":257,"he":258,"Ġa":259,"ou":260,"Ġs":261,"Ġm":262,"in":263,"Ġw":264,"re":265,"ha":266,"nd":267,"Ġthe":268,"Ġb":269,"is":270,"or":271,"Ġf":272,"er":273,"ll":274,"it":275,"on":276,"Ġd":277,"Ġc":278,"es":279,"en":280,"Ġn":281,"Ġl":282,"Ġy":283,"Ġth":284,"ar":285,"Ġh":286,"Ġo":287,"Ġto":288,"Ġyou":289,"Ġp":290,"hat":291,"ĠI":292,"Ġhe":293,"ve":294,"ot":295,"st":296,"Ġand":297,"ow":298,"ing":299,"an":300,"Ġof":301,"om":302,"Ġg":303,"at":304,"Ġbe":305,"se":306,"Ġmy":307,"Ġin":308,"ce":309,"Ġha":310,"le":311,"ay":312,"ld":313,"ir":314,"et":315,"ed":316,"ut":317,"Ġme":318,"im":319,"ith":320,"'s":321,"Ġnot":322,"ch":323,"Ġthat":324,"Ġis":325,"gh":326,"And":327,"Ġfor":328,"ke":329,"Ġu":330,"our":331,"Ġwe":332,"oo":333,"ill":334,"Ġe":335,"her":336,"Ġwith":337,"ent":338,"Ġit":339,"Ġyour":340,"ad":341,"ri":342,"Ġthou":343,"Ġst":344,"'d":345,"Ġk":346,"ome":347,"Ġhis":348,"ght":349,"EN":350,"ord":351,"id":352,"The":353,"as":354,"Ġre":355,"Ġhave":356,"IN":357,"ly":358,"ra":359,"Ġli":360,"Ġhim":361,"ur":362,"Ġthis":363,"al":364,"IO":365,"Ġso":366,"Ġas":367,"Ġde":368,"Ġon":369,"ore":370,"ro":371,"AR":372,"hi":373,"ould":374,"ood":375,"ck":376,"ain":377,"ver":378,"est":379,"Ġthy":380,"Ġsha":381,"ess":382,"ea":383,"Ġdo":384,"Ġwill":385,"am":386,"Ġno":387,"Ġbut":388,"us":389,"and":390,"US":391,"if":392,"Ġse":393,"ge":394,"Th":395,"Ġall":396,"ake":397,"Ġsu":398,"To":399,"Ġher":400,"ru":401,"ion":402,"th":403,"Ġan":404,"ter":405,"ard":406,"Ġlo":407,"han":408,"ell":409,"ear":410,"Ġsp":411,"Ġthee":412,"Ġour":413,"Ġfa":414,"Ġshall":415,"Ġby":416,"UC":417,"il":418,"Ġare":419,"ING":420,"ĠC":421,"rom":422,"Ġne":423,"ho":424,"Ġkn":425,"AN":426,"ĠR":427,"That":428,"Ġv":429,"ER":430,"OR":431,"ast":432,"ct":433,"ous":434,"Ġwhat":435,"ight":436,"Ġsh":437,"ul":438,"ET":439,"Ġ'":440,"ant":441,"ES":442,"Ġup":443,"sel":444,"qu":445,"But":446,"art":447,"Ġgood":448,"row":449,"ine":450,"ath":451,"Ġlord":452,"hich":453,"nt":454,"ust":455,"'ll":456,"one":457,"Ġpr":458,"Ġcom":459,"Ġat":460,"Ġman":461,"What":462,"ĠM":463,"Ġwhe":464,"ĠE":465,"KING":466,"Ġam":467,"end":468,"ic":469,"Ġcon":470,"ble":471,"ry":472,"ong":473,"ie":474,"ive":475,"Ġbl":476,"Ġfrom":477,"ven":478,"ĠG":479,"For":480,"Ġshe":481,"em":482,"Ġgo":483,"are":484,"Ġmore":485,"IC":486,"out":487,"Ġthem":488,"au":489,"Ġwas":490,"oth":491,"other":492,"He":493,"Ġsir":494,"ol":495,"Ġnow":496,"ĠL":497,"Ġhat":498,"ost":499,"Ġif":500,"LO":501,"ind":502,"Ġthere":503,"Ġwould":504,"Ġknow":505,"Ġcan":506,"ers":507,"IUS":508,"ep":509,"self":510,"ARD":511,"ather":512,"fe":513,"ond":514,"res":515,"ate":516,"Ġsay":517,"Ġhere":518,"Ġlove":519,"Ġsw":520,"Ġtheir":521,"Ġbr":522,"pp":523,"Ġor":524,"--":525,"all":526,"ĠS":527,"Ġthan":528,"Ġthen":529,"Ġking":530,"Ġus":531,"ĠO":532,"ĠB":533,"Ġthey":534,"Ġar":535,"od":536,"My":537,"Ġlet":538,"Ġun":539,"ig":540,"Ġwor":541,"ure":542,"ink":543,"ĠH":544,"ort":545,"hy":546,"ĠV":547,"ame":548,"fore":549,"As":550,"Ġmay":551,"el":552,"Ġqu":553,"Ġcome":554,"ook":555,"Whe":556,"ish":557,"LI":558,"Ġwell":559,"KE":560,"ves":561,"Ġj":562,"Ġone":563,"Ġhath":564,"irst":565,"You":566,"Ġmake":567,"reat":568,"ak":569,"gain":570,"Ġmust":571,"ound":572,"ng":573,"Ġgra":574,"Ġwere":575,"Ġho":576,"ci":577,"Ġsee":578,"Ġlike":579,"ue":580,"eak":581,"TIO":582,"Ġshould":583,"ity":584,"Ġpro":585,"ĠP":586,"Ġsa":587,"Ġmad":588,"um":589,"Ġpl":590,"Ġfather":591,"RO":592,"AU":593,"Ġhad":594,"Ġdid":595,"pe":596,"ime":597,"Ġupon":598,"ice":599,"ON":600,"Ġtoo":601,"ence":602,"ĠW":603,"ward":604,"ist":605,"Ġdeath":606,"own":607,"man":608,"ose":609,"Ġen":610,"un":611,"IS":612,"ful":613,"nce":614,"Ġr":615,"Ġpo":616,"Ġspeak":617,"de":618,"entle":619,"io":620,"Ġout":621,"pt":622,"Ġwhich":623,"ICH":624,"Ġfri":625,"OL":626,"DU":627,"Ġagain":628,"DUKE":629,"Ġhow":630,"EL":631,"ick":632,"ĠA":633,"Ġtru":634,"Ġheart":635,"Ġyet":636,"Ġhand":637,"CA":638,"Thou":639,"very":640,"ICHARD":641,"ENTIO":642,"With":643,"ign":644,"Ġsome":645,"ance":646,"Ġwho":647,"Which":648,"If":649,"Ġwhen":650,"ies":651,"Ġmar":652,"ire":653,"Ġmine":654,"Ġhon":655,"har":656,"orn":657,"Ġoff":658,"ince":659,"INC":660,"In":661,"ack":662,"ĠY":663,"Ġson":664,"Ġdis":665,"Ġal":666,"'t":667,"We":668,"uch":669,"wn":670,"Ġhea":671,"First":672,"oy":673,"Ġtime":674,"Ġhear":675,"AB":676,"ec":677,"Ġsuch":678,"ness":679,"LA":680,"Ġbrother":681,"Of":682,"Ġblood":683,"ither":684,"Ġab":685,"UE":686,"Why":687,"Ġthese":688,"No":689,"Ġgive":690,"Ġfo":691,"Ġday":692,"ĠII":693,"Ġear":694,"ĠRICHARD":695,"TER":696,"Ġro":697,"ise":698,"Ġex":699,"Ġlife":700,"This":701,"eet":702,"Ġtell":703,"So":704,"Ġlook":705,"Ġthink":706,"UCH":707,"oul":708,"Ġword":709,"Ġey":710,"Ġwhere":711,"ag":712,"age":713,"een":714,"ther":715,"GLO":716,"Ġtake":717,"UCES":718,"Ġfriend":719,"GLOUCES":720,"GLOUCESTER":721,"ef":722,"erv":723,"ady":724,"rown":725,"Ġdes":726,"ings":727,"ave":728,"not":729,"Ġgentle":730,"urse":731,"How":732,"RY":733,"Ġri":734,"ase":735,"QUE":736,"way":737,"INCENTIO":738,"QUEEN":739,"Ġlea":740,"tis":741,"ĠOF":742,"Ġart":743,"Ġmost":744,"Where":745,"Ġhonour":746,"LAN":747,"Ġmuch":748,"Ġsl":749,"Ġwar":750,"Ġfl":751,"urn":752,"Ġmade":753,"ment":754,"Now":755,"Ġhast":756,"Ġtw":757,"Ġfear":758,"ĠT":759,"Ġbet":760,"ENRY":761,"aught":762,"Is":763,"LE":764,"ber":765,"ff":766,"ĠGod":767,"ough":768,"ved":769,"Ġbre":770,"cc":771,"ower":772,"Ġnever":773,"ĠVINCENTIO":774,"Be":775,"ap":776,"igh":777,"ĠK":778,"Ġgreat":779,"Ġfair":780,"Who":781,"ee":782,"tle":783,"Ġmen":784,"orrow":785,"Ġcou":786,"Ġnew":787,"ĠRome":788,"aster":789,"uke":790,"iz":791,"old":792,"ORK":793,"Ġpart":794,"ation":795,"INIUS":796,"ss":797,"ree":798,"ide":799,"Or":800,"Ġcall":801,"ple":802,"Ġany":803,"Ġheaven":804,"Ġad":805,"Ġcomm":806,"It":807,"Your":808,"Ġstand":809,"Ġcannot":810,"Ġtrue":811,"DW":812,"Ġname":813,"Ġbeen":814,"ears":815,"DWARD":816,"Ġcl":817,"Ġpre":818,"Ġsweet":819,",--":820,"Ġdoth":821,"Ġpray":822,"hing":823,"PET":824,"UM":825,"Ġnoble":826,"LUC":827,"MEN":828,"TH":829,"Ġown":830,"Ġple":831,"ass":832,"ĠD":833,"ouse":834,"Ġper":835,"Ay":836,"Come":837,"ull":838,"There":839,"Ġwr":840,"Ġdone":841,"ife":842,"aw":843,"Ġtr":844,"Ġway":845,"Ġother":846,"Ġhead":847,"Ġmean":848,"li":849,"red":850,"When":851,"dward":852,"Ġnor":853,"EO":854,"MEO":855,"Ġsc":856,"Ġsoul":857,"Ġpres":858,"ROMEO":859,"ace":860,"ving":861,"Ġnight":862,"Ġbear":863,"ENIUS":864,"aint":865,"ĠCl":866,"Ġworld":867,"MENENIUS":868,"ger":869,"Ġbefore":870,"ause":871,"Ġboth":872,"Ġqueen":873,"per":874,"Then":875,"aughter":876,"RUCH":877,"ock":878,"Ġchi":879,"Here":880,"PETRUCH":881,"PETRUCHIO":882,"OM":883,"able":884,"Ġvery":885,"Ġdead":886,"TES":887,"By":888,"Ġra":889,"ite":890,"Than":891,"the":892,"Ġke":893,"ab":894,"les":895,"ĠF":896,"Ġdown":897,"to":898,"Ġapp":899,"Ġmyself":900,"Ġcont":901,"GR":902,"HA":903,"Ġwh":904,"Ġrem":905,"ĠLord":906,"Ġarm":907,"Ġthus":908,"IOLAN":909,"ilt":910,"ORIOLAN":911,"ORIOLANUS":912,"CORIOLANUS":913,"Sec":914,"Ġleave":915,"Second":916,"Ġbeing":917,"ction":918,"ĠEdward":919,"Nor":920,"sw":921,"Ġunt":922,"ress":923,"Ġgrace":924,"less":925,"Ġbeg":926,"Ġeyes":927,"BA":928,"land":929,"Ġmother":930,"ran":931,"Ġma":932,"Ġold":933,"Ġim":934,"INA":935,"ĠEDWARD":936,"itiz":937,"itizen":938,"ps":939,"Ġlong":940,"Ġever":941,"ĠMar":942,"Ġlive":943,"Ġchild":944,"Let":945,"me":946,"Ġwife":947,"She":948,"Ġaway":949,"Ġrep":950,"ĠIII":951,"Ġwom":952,"Ġpoor":953,"Ġfriends":954,"come":955,"for":956,"wick":957,"Ġaf":958,"Ġmight":959,"nder":960,"Ġstay":961,"eace":962,"ks":963,"oud":964,"Ġdie":965,"atch":966,"led":967,"ĠJ":968,"Ġru":969,"arwick":970,"Ġcomes":971,"Ġcons":972,"Ġcrown":973,"ows":974,"Ġmany":975,"Ġpe":976,"Tis":977,"hall":978,"ison":979,"Ġle":980,"ĠYORK":981,"lo":982,"uck":983,"iss":984,"Ġhouse":985,"Ġhar":986,"Ġthought":987,"Ġrest":988,"ISAB":989,"ELLA":990,"ISABELLA":991,"ian":992,"erc":993,"Ġcour":994,"RAN":995,"Ġent":996,"Ġlie":997,"che":998,"Ġset":999,"JU":1000,"well":1001,"ors":1002,"atter":1003,"LIET":1004,"ONTES":1005,"ĠWarwick":1006,"LEONTES":1007,"JULIET":1008,"Nay":1009,"int":1010,"ittle":1011,"Ġdaughter":1012,"Ġgone":1013,"Ġbetter":1014,"MI":1015,"rant":1016,"ought":1017,"Ġprince":1018,"DY":1019,"His":1020,"Ġtong":1021,"Ġwit":1022,"Ġnothing":1023,"CE":1024,"VOL":1025,"ENCE":1026,"LADY":1027,"BR":1028,"TA":1029,"cl":1030,"ied":1031,"Ġkeep":1032,"Go":1033,"Well":1034,"ces":1035,"ious":1036,"os":1037,"Ġsle":1038,"Ġres":1039,"hard":1040,"Ġnews":1041,"SIC":1042,"ft":1043,"ier":1044,"Ġtri":1045,"Ġmo":1046,"ret":1047,"ont":1048,"Ġthose":1049,"Ġgri":1050,"ool":1051,"une":1052,"SICINIUS":1053,"Not":1054,"Ġlittle":1055,"Ġlords":1056,"Ġagainst":1057,"ford":1058,"Ġbest":1059,"Ġhour":1060,"Ġhence":1061,"ardon":1062,"akes":1063,"lse":1064,"Ġacc":1065,"sed":1066,"Ġface":1067,"ult":1068,"Ġfoll":1069,"On":1070,"ew":1071,"ud":1072,"ark":1073,"Ġyoung":1074,"Ġend":1075,"ork":1076,"Ġthing":1077,"Ġstill":1078,"Ġkind":1079,"ield":1080,"ST":1081,"Ġpri":1082,"Ġpur":1083,"alk":1084,"Thy":1085,"Ġcomp":1086,"LUCIO":1087,"ale":1088,"ins":1089,"ert":1090,"Ġput":1091,"Ġpower":1092,"ĠIV":1093,"ichard":1094,"Ġtwo":1095,"Ġcha":1096,"Ġhimself":1097,"Pro":1098,"iness":1099,"Ġfirst":1100,"Ġpeace":1101,"Ġgu":1102,"Ġelse":1103,"ried":1104,"Ġdear":1105,"cious":1106,"Sir":1107,"ail":1108,"ty":1109,"ason":1110,"hile":1111,"Ġsub":1112,"Ġunto":1113,"ile":1114,"ray":1115,"Ġtill":1116,"Ġsm":1117,"uty":1118,"RI":1119,"ZAB":1120,"ect":1121,"Ġtra":1122,"Ġbid":1123,"Ġback":1124,"Ġdre":1125,"Ġhus":1126,"ETH":1127,"ĠELI":1128,"Ġtherefore":1129,"Ġearth":1130,"Ġwords":1131,"Ġcount":1132,"ZABETH":1133,"ĠELIZABETH":1134,"Have":1135,"band":1136,"ius":1137,"men":1138,"ople":1139,"yal":1140,"Ġfind":1141,"Ġcould":1142,"Ġtongue":1143,"orse":1144,"Ġlady":1145,"Ġthine":1146,"Ġneed":1147,"ĠYork":1148,"HENRY":1149,"get":1150,"tw":1151,"Ġtre":1152,"Ġfell":1153,"enry":1154,"Ġhigh":1155,"Ġforth":1156,"Ġhope":1157,"MER":1158,"St":1159,"lp":1160,"Ġhome":1161,"vere":1162,"eth":1163,"Ġseem":1164,"eech":1165,"ĠRomeo":1166,"Ġhusband":1167,"CL":1168,"Ġduke":1169,"Ġright":1170,"GE":1171,"WAR":1172,"WIC":1173,"fort":1174,"ĠWhat":1175,"rer":1176,"Ġban":1177,"uth":1178,"Ġthough":1179,"ĠVI":1180,"WARWIC":1181,"WARWICK":1182,"UT":1183,"ach":1184,"ix":1185,"Ġmind":1186,"Ġbra":1187,"ister":1188,"Ġche":1189,"Ġchar":1190,"hip":1191,"ĠHENRY":1192,"Ġpeople":1193,"Nurse":1194,"ds":1195,"ged":1196,"ĠCitizen":1197,"ren":1198,"They":1199,"ĠHenry":1200,"HAM":1201,"IAN":1202,"LET":1203,"PU":1204,"eed":1205,"Ġbri":1206,"Ġchan":1207,"Ġlaw":1208,"ĠRichard":1209,"Ġshow":1210,"Ġconf":1211,"Ġhands":1212,"PULET":1213,"EY":1214,"be":1215,"Ġmaster":1216,"Ġwhy":1217,"Ġco":1218,"Ġcause":1219,"Ġgl":1220,"Ġonce":1221,"Ġsaid":1222,"Ġimp":1223,"Good":1224,"MIO":1225,"Shall":1226,"Ġbod":1227,"Ġnone":1228,"ousin":1229,"Ġjoy":1230,"ervant":1231,"All":1232,"bt":1233,"Ġfort":1234,"Ġbring":1235,"Yet":1236,"Ġdou":1237,"ates":1238,"Ġevery":1239,"UCKING":1240,"BRUT":1241,"UCKINGHAM":1242,"BRUTUS":1243,"BRO":1244,"BUCKINGHAM":1245,"From":1246,"TRAN":1247,"iet":1248,"Ġmist":1249,"Ġpass":1250,"ird":1251,"Ġlight":1252,"INGBRO":1253,"ESS":1254,"ĠBOL":1255,"TRANIO":1256,"INGBROKE":1257,"ĠBOLINGBROKE":1258,"Do":1259,"Will":1260,"lt":1261,"vost":1262,"Ġwo":1263,"Ġnat":1264,"Ġthr":1265,"Ġroyal":1266,"swer":1267,"PER":1268,"TIS":1269,"cle":1270,"Ġtears":1271,"its":1272,"Ġcame":1273,"ary":1274,"ĠMAR":1275,"Ġwhose":1276,"Ġplease":1277,"lf":1278,"vy":1279,"ory":1280,"Ġpardon":1281,"roke":1282,"ĠAn":1283,"Cl":1284,"GAR":1285,"NE":1286,"pose":1287,"Ġbes":1288,"Ġboy":1289,"Ġfull":1290,"arry":1291,"Ġheard":1292,"Ġhapp":1293,"Ġdev":1294,"Ġjust":1295,"Ġwrong":1296,"Ġpresent":1297,"ĠMARGAR":1298,"ĠMARGARET":1299,"ATH":1300,"eel":1301,"Ġsince":1302,"Ġmis":1303,"ens":1304,"Ġland":1305,"Ġlast":1306,"Ġere":1307,"Ġstate":1308,"Ġplace":1309,"MIL":1310,"bl":1311,"sand":1312,"Ġmeet":1313,"Ġunder":1314,"Ġkill":1315,"Ġafter":1316,"HOR":1317,"cent":1318,"Ġsorrow":1319,"ition":1320,"Ġcare":1321,"Ġthousand":1322,"esty":1323,"ANGE":1324,"ORD":1325,"Ġhold":1326,"GRE":1327,"ANGELO":1328,"CU":1329,"Our":1330,"Ġhelp":1331,"ARINA":1332,"arence":1333,"Ġwhom":1334,"Ġfollow":1335,"KATH":1336,"day":1337,"Ġfar":1338,"Ġless":1339,"Ġhither":1340,"ceive":1341,"irt":1342,"Ġweep":1343,"Ġshame":1344,"selves":1345,"cius":1346,"Ġenem":1347,"Ġabout":1348,"Ġeye":1349,"KATHARINA":1350,"iol":1351,"Ġfal":1352,"Ġfool":1353,"ons":1354,"Ġpat":1355,"urde":1356,"Ġsun":1357,"Ġanswer":1358,"air":1359,"Ġch":1360,"asure":1361,"Ġfall":1362,"Ġmaid":1363,"LUS":1364,"Un":1365,"Up":1366,"ount":1367,"Ġbus":1368,"Ġcousin":1369,"thy":1370,"ESCA":1371,"Ġhate":1372,"Ġgracious":1373,"Ġgentleman":1374,"ĠKing":1375,"Ġgrief":1376,"ESCALUS":1377,"An":1378,"ject":1379,"ove":1380,"Ġmakes":1381,"Ġinto":1382,"imes":1383,"Ġstri":1384,"Hath":1385,"iv":1386,"ild":1387,"Ġstre":1388,"ĠEng":1389,"Ġwoman":1390,"DUCH":1391,"Ġturn":1392,"Ġhum":1393,"Ġbel":1394,"alt":1395,"Ġdost":1396,"Ġcomfort":1397,"ices":1398,"Ġcoun":1399,"ĠDuke":1400,"Ġcourt":1401,"Ġsleep":1402,"urderer":1403,"DUCHESS":1404,"Lord":1405,"pher":1406,"Ġtalk":1407,"itor":1408,"Ġover":1409,"Ġbody":1410,"morrow":1411,"Ġwilt":1412,"Ġbu":1413,"Ġgr":1414,"ute":1415,"gelo":1416,"deed":1417,"ĠMarcius":1418,"IA":1419,"ience":1420,"Ġi":1421,"ised":1422,"Ġbed":1423,"Ġfault":1424,"Ġatt":1425,"ieve":1426,"Ġprove":1427,"Ġplay":1428,"CAMIL":1429,"ĠClarence":1430,"CAMILLO":1431,"God":1432,"ere":1433,"ily":1434,"Ġsound":1435,"Ġdra":1436,"ans":1437,"omet":1438,"Ġinst":1439,"Ġwel":1440,"ade":1441,"Ġret":1442,"Ġdeed":1443,"Ġthank":1444,"TEN":1445,"Ġser":1446,"Ġbo":1447,"Ġfight":1448,"Ġindeed":1449,"illain":1450,"hold":1451,"Ġvo":1452,"Ġsword":1453,"ĠAngelo":1454,"HORTEN":1455,"Ġfalse":1456,"HORTENS":1457,"FRI":1458,"Sh":1459,"Ġuse":1460,"Ġeven":1461,"Ġsovere":1462,"Ġanother":1463,"Ġgrave":1464,"Ġadv":1465,"Provost":1466,"Ġfellow":1467,"Upon":1468,"HORTENSIO":1469,"FRIAR":1470,",'":1471,"PTIS":1472,"eal":1473,"Ġcur":1474,"Ġhas":1475,"Ġem":1476,"ury":1477,"pect":1478,"BAPTIS":1479,"Ġbanish":1480,"Ġfortune":1481,"BAPTISTA":1482,"CUS":1483,"COM":1484,"TOL":1485,"YCUS":1486,"pl":1487,"pen":1488,"ouch":1489,"Ġmerc":1490,"Ġmatter":1491,"Ġwant":1492,"Ġreven":1493,"Ġass":1494,"Ġsend":1495,"Ġprison":1496,"fect":1497,"AUTOL":1498,"Ġrather":1499,"Ġcountry":1500,"Ġdoubt":1501,"COMINIUS":1502,"AUTOLYCUS":1503,".'":1504,"Are":1505,"Even":1506,"More":1507,"Ġwish":1508,"Ġyears":1509,"Ġreason":1510,"Ġlies":1511,"Ġonly":1512,"ARENCE":1513,"Third":1514,"Ġvirt":1515,"Ġtruth":1516,"Would":1517,"ior":1518,"ms":1519,"of":1520,"rance":1521,"ĠBut":1522,"Ġdan":1523,"Ġpers":1524,"any":1525,"Ġbreath":1526,"Ġarms":1527,"Ġdream":1528,"CLARENCE":1529,"pherd":1530,"BEN":1531,"MAR":1532,"NOR":1533,"dd":1534,"der":1535,"Ġsent":1536,"ener":1537,"Ġgi":1538,"Ġstra":1539,"Ġshalt":1540,"Ġdisc":1541,"VOLIO":1542,"Clown":1543,"Ġbusiness":1544,"BENVOLIO":1545,"Al":1546,"At":1547,"PRO":1548,"SPER":1549,"by":1550,"hed":1551,"Ġsen":1552,"Ġprom":1553,"Ġholy":1554,"Ġenough":1555,"erving":1556,"Ġcommand":1557,"UMIO":1558,"GRUMIO":1559,"PROSPER":1560,"PROSPERO":1561,"ia":1562,"ken":1563,"Ġsea":1564,"Ġwind":1565,"itt":1566,"Ġcra":1567,"Ġlay":1568,"ars":1569,"Ġpity":1570,"ator":1571,"Ġbea":1572,"Ġhang":1573,"Ġstran":1574,"Ġsold":1575,"Ġspir":1576,"Ġfare":1577,"Ġproud":1578,"ĠMurderer":1579,"Ġswear":1580,"Ġcontent":1581,"MERCU":1582,"MERCUTIO":1583,"ike":1584,"Ġdare":1585,"eter":1586,"Ġlives":1587,"Ġdep":1588,"Ġsec":1589,"Ġvillain":1590,"gainst":1591,"ĠKate":1592,"LUCENTIO":1593,"Ġremem":1594,"Ġnature":1595,"Ġwelcome":1596,"POM":1597,"Tw":1598,"com":1599,"unt":1600,"Ġtend":1601,"ham":1602,"Ġfree":1603,"Ġgre":1604,"Ġget":1605,"Ġint":1606,"Ġwithin":1607,"Ġkiss":1608,"ester":1609,"ĠCome":1610,"Ġgods":1611,"Ġsaw":1612,"Ġmadam":1613,"LAND":1614,"Ġhappy":1615,"Ġsovereign":1616,"POMP":1617,"LINA":1618,"PAU":1619,"apt":1620,"Ġserv":1621,"Ġsister":1622,"Ġsomet":1623,"hal":1624,"Ġfoul":1625,"Ġcity":1626,"vers":1627,"Were":1628,"Ġbeseech":1629,"PAULINA":1630,"YORK":1631,"ient":1632,"use":1633,"ery":1634,"Ġden":1635,"Ġyield":1636,"Ġthree":1637,"Ġoath":1638,"Ġyours":1639,"onder":1640,"ague":1641,"Ġbreak":1642,"Ġmeans":1643,"Ġsubject":1644,"gether":1645,"GREMIO":1646,"POMPEY":1647,"NIA":1648,"OLI":1649,"POLI":1650,"XEN":1651,"balt":1652,"ybalt":1653,"ĠNor":1654,"Ġaw":1655,"Ġmer":1656,"Ġwhile":1657,"Ġborn":1658,"Ġthings":1659,"Ġhorse":1660,"anc":1661,"usic":1662,"ANT":1663,"Ġbloody":1664,"Ġlooks":1665,"eft":1666,"UMNIA":1667,"like":1668,"ches":1669,"VOLUMNIA":1670,"POLIXEN":1671,"POLIXENES":1672,"GON":1673,"Her":1674,"rong":1675,"up":1676,"ues":1677,"Ġtem":1678,"Ġwin":1679,"Ġwound":1680,"Ġfire":1681,"enger":1682,"Ġyourself":1683,"Ġsupp":1684,"Ġspo":1685,"Ġfaith":1686,"INGS":1687,"ĠServing":1688,"Ġmaj":1689,"STINGS":1690,"Ġtraitor":1691,"centio":1692,"ĠServingman":1693,"RENCE":1694,"Say":1695,"bs":1696,"broke":1697,"rem":1698,"Ġdru":1699,"Ġlam":1700,"essenger":1701,"ĠLAU":1702,"Ġmark":1703,"Ġcommon":1704,"HASTINGS":1705,"Ġchildren":1706,"ertain":1707,"Ġmistress":1708,"ĠLAURENCE":1709,"BY":1710,"BER":1711,"Ġcond":1712,"Ġbeat":1713,"Ġrequ":1714,"Ġdef":1715,"Ġval":1716,"Ġuncle":1717,"Therefore":1718,"form":1719,"Ġmajesty":1720,"CLI":1721,"FF":1722,"Look":1723,"Was":1724,"Ġaff":1725,"Ġsin":1726,"Ġmet":1727,"Ġlate":1728,"Ġleft":1729,"Ġtold":1730,"Ġsoon":1731,"Ġseen":1732,"Ġsave":1733,"Ġdays":1734,"UMBER":1735,"THUMBER":1736,"Ġwoe":1737,"ĠEngland":1738,"NORTHUMBER":1739,"Ġtender":1740,"CLIFF":1741,"NORTHUMBERLAND":1742,"ID":1743,"Take":1744,"bed":1745,"ever":1746,"ring":1747,"ten":1748,"Ġsight":1749,"Ġmon":1750,"Ġgener":1751,"ides":1752,"idow":1753,"Ġdoes":1754,"Though":1755,"Ġreturn":1756,"Ġmercy":1757,"Ġfarewell":1758,"ac":1759,"dom":1760,"mp":1761,"ĠAN":1762,"hes":1763,"Ġsit":1764,"Ġsad":1765,"rel":1766,"Ġdeep":1767,"ters":1768,"Ġgold":1769,"unes":1770,"Ġmarry":1771,"Ġheavy":1772,"Ġfoot":1773,"Ġwarrant":1774,"ĠJul":1775,"Ġpurpose":1776,"Ġthrough":1777,"Ġdanger":1778,"ĠANNE":1779,"Ah":1780,"Did":1781,"Give":1782,"PR":1783,"aim":1784,"ict":1785,"mer":1786,"so":1787,"und":1788,"vent":1789,"Ġill":1790,"Ġcho":1791,"Ġcold":1792,"Ġnurse":1793,"Ġtogether":1794,"Ġgrow":1795,"ours":1796,"ifford":1797,"Ġsure":1798,"earn":1799,"CAPULET":1800,"ignior":1801,"INCE":1802,"Ġdeser":1803,"ments":1804,"PRINCE":1805,"az":1806,"aid":1807,"ca":1808,"oint":1809,"Ġtimes":1810,"oriol":1811,"ingbroke":1812,"ceed":1813,"Ġwithout":1814,"enty":1815,"Ġask":1816,"ross":1817,"ush":1818,"Ġlost":1819,"arewell":1820,"olingbroke":1821,"Ġpluck":1822,"Ġreport":1823,"Ġliege":1824,"Ġbelieve":1825,"Ġspirit":1826,"ling":1827,"sh":1828,"xt":1829,"Ġair":1830,"Ġage":1831,"outh":1832,"Ġwat":1833,"Ġheir":1834,"ets":1835,"ains":1836,"Ġthyself":1837,"ift":1838,"Ġloss":1839,"ĠMont":1840,"Ġsays":1841,"ĠBolingbroke":1842,"Whose":1843,"One":1844,"Ġstrange":1845,"ALO":1846,"Had":1847,"ial":1848,"no":1849,"ner":1850,"Ġbat":1851,"Ġcry":1852,"Ġlearn":1853,"ced":1854,"Ġsuff":1855,"aking":1856,"Ġears":1857,"Ġhaste":1858,"ĠClifford":1859,"Ġentreat":1860,"Ġdevil":1861,"Ġground":1862,"Should":1863,"Ġperson":1864,"ĠJuliet":1865,"Like":1866,"Wh":1867,"ges":1868,"night":1869,"Ġmur":1870,"ined":1871,"Ġfly":1872,"Ġtoward":1873,"Ġpast":1874,"oman":1875,"let":1876,"Ġfast":1877,"Ġvis":1878,"aud":1879,"ĠLu":1880,"Ġpoint":1881,"Ġfriar":1882,"Ġdisp":1883,"Ġslain":1884,"Ġbetw":1885,"ĠFrance":1886,"ixt":1887,"Ġjustice":1888,"Ġstraight":1889,"Ġremember":1890,"APULET":1891,"FL":1892,"FID":1893,"IZ":1894,"May":1895,"Some":1896,"Ġord":1897,"Ġsil":1898,"ina":1899,"Ġbold":1900,"Ġcurse":1901,"Ġnear":1902,"ution":1903,"Ġstrong":1904,"These":1905,"ĠCAPULET":1906,"ORIZ":1907,"Ġworthy":1908,"Ġquick":1909,"AUFID":1910,"entleman":1911,"Ġtrust":1912,"Ġalone":1913,"Ġdesire":1914,"Ġinstru":1915,"Ġbeauty":1916,"Ġservice":1917,"FLORIZ":1918,"AUFIDIUS":1919,"FLORIZEL":1920,"Can":1921,"SE":1922,"Tell":1923,"VER":1924,"gs":1925,"ning":1926,"ship":1927,"with":1928,"Ġtouch":1929,"Ġfound":1930,"ithe":1931,"ĠIs":1932,"adam":1933,"Ġready":1934,"ION":1935,"Ġbrought":1936,"ured":1937,"Ġposs":1938,"ĠTybalt":1939,"Ġrun":1940,"Ġhard":1941,"Ġenemy":1942,"Ġrevenge":1943,"Ġgeneral":1944,"audio":1945,"!'":1946,"Ha":1947,"ible":1948,"vo":1949,"ĠHere":1950,"Ġwoo":1951,"Ġduty":1952,"enator":1953,"Ġgrant":1954,"Ġinf":1955,"cept":1956,"Ġitself":1957,"amill":1958,"Ġlose":1959,"aunt":1960,"Ġknows":1961,"Ġcanst":1962,"ĠSenator":1963,"inks":1964,"umber":1965,"Ġmarried":1966,"Ġthoughts":1967,"Ġcharge":1968,"Against":1969,"Bec":1970,"CIUS":1971,"RICHARD":1972,"Sp":1973,"cester":1974,"eep":1975,"gu":1976,"lou":1977,"sue":1978,"ua":1979,"ĠYou":1980,"Ġmorn":1981,"Ġwear":1982,"riage":1983,"Ġread":1984,"Ġdeli":1985,"Ġspeed":1986,"Ġquar":1987,"Ġprof":1988,"Ġtwenty":1989,"Ġstands":1990,"BAST":1991,"Shepherd":1992,"ched":1993,"Ġhours":1994,"Ġconfess":1995,"Ġstreng":1996,"SEBAST":1997,"ithee":1998,"SEBASTIAN":1999,"OW":2000,"cess":2001,"ĠN":2002,"Ġmock":2003,"Ġfur":2004,"Ġfore":2005,"Ġfield":2006,"ones":2007,"Ġdiv":2008,"Ġcar":2009,"Ġyouth":2010,"Ġpost":2011,"Ġhell":2012,"ingham":2013,"Ġhalf":2014,"oop":2015,"Thus":2016,"ĠRi":2017,"olk":2018,"fection":2019,"ĠHast":2020,"Ġjud":2021,"ump":2022,"Ġexec":2023,"Ġfearful":2024,"Ġcounsel":2025,"amillo":2026,"BION":2027,"Com":2028,"DEL":2029,"Till":2030,"most":2031,"pare":2032,"Ġter":2033,"Ġmin":2034,"Ġwret":2035,"Ġbos":2036,"Ġpar":2037,"Ġbehold":2038,"Ġinc":2039,"Ġeach":2040,"ads":2041,"Ġrec":2042,"Ġdel":2043,"ĠCoriol":2044,"ols":2045,"Ġwork":2046,"ortal":2047,"Ġhearts":2048,"Ġmarriage":2049,"Ġdesp":2050,"ĠClaudio":2051,"itizens":2052,"uckingham":2053,"Ġresol":2054,"MARCIUS":2055,"ĠMontague":2056,"loucester":2057,"BIONDEL":2058,"Ġbosom":2059,"BIONDELLO":2060,"Away":2061,"MON":2062,"Madam":2063,"bly":2064,"folk":2065,"iers":2066,"now":2067,"ĠThe":2068,"Ġtit":2069,"Ġten":2070,"Ġtale":2071,"Ġbound":2072,"Ġdam":2073,"Ġcut":2074,"ench":2075,"Ġye":2076,"Ġopen":2077,"rah":2078,"alm":2079,"ĠCap":2080,"Ġshort":2081,"Ġknown":2082,"ĠBuckingham":2083,"Ġseek":2084,"Ġharm":2085,"Ġcompany":2086,"Ġguilt":2087,"Ġhighness":2088,"Ġstrike":2089,"Ġattend":2090,"Ġserve":2091,"Ġmurder":2092,"ĠHastings":2093,"Farewell":2094,"HER":2095,"OP":2096,"chan":2097,"hood":2098,"Ġve":2099,"ĠHe":2100,"ĠAU":2101,"Ġag":2102,"Ġsat":2103,"Ġside":2104,"Ġwhi":2105,"Ġwatch":2106,"rest":2107,"ished":2108,"Ġfeel":2109,"Ġdish":2110,"Ġdist":2111,"ents":2112,"ander":2113,"Ġsuit":2114,"Ġloving":2115,"ONIO":2116,"Ġhonest":2117,"Ġheavens":2118,"Ġtrib":2119,"MERLE":2120,"Ġdraw":2121,"Ġvoices":2122,"Ġsomething":2123,"ANTONIO":2124,"Ġstrength":2125,"ĠAUMERLE":2126,"Marry":2127,"Pray":2128,"See":2129,"ZALO":2130,"fid":2131,"ging":2132,"Ġact":2133,"Ġsake":2134,"Ġwast":2135,"Ġwonder":2136,"Ġwidow":2137,"Ġbit":2138,"Ġcor":2139,"Ġsto":2140,"Ġstir":2141,"ĠGentleman":2142,"ĠGloucester":2143,"ĠLanc":2144,"Ġdidst":2145,"Ġgentlemen":2146,"Ġcloud":2147,"Ġwomen":2148,"ethinks":2149,"Ġenemies":2150,"GONZALO":2151,"ĠLancaster":2152,"Unt":2153,"ives":2154,"su":2155,"Ġsing":2156,"Ġmusic":2157,"rew":2158,"Ġbreat":2159,"Ġdr":2160,"Ġpra":2161,"Ġpie":2162,"Ġpale":2163,"Ġgates":2164,"oose":2165,"race":2166,"ils":2167,"ĠCamillo":2168,"Ġnext":2169,"Ġknew":2170,"Ġcoming":2171,"Ġthanks":2172,"Ġclose":2173,"Ġpleasure":2174,"Ġsouls":2175,"ianca":2176,"Ġcourse":2177,"Ġenter":2178,"Ġwithal":2179,"Ġbrave":2180,"Ġchee":2181,"ceived":2182,"Ġtitle":2183,"DIO":2184,"fter":2185,"ne":2186,"vour":2187,"you":2188,"Ġty":2189,"Ġwa":2190,"Ġbur":2191,"Ġfit":2192,"oward":2193,"Ġgar":2194,"Ġbecome":2195,"etch":2196,"etru":2197,"Ġforg":2198,"Ġweak":2199,"Ġeither":2200,"Ġlips":2201,"rust":2202,"els":2203,"Ġjest":2204,"Ġplain":2205,"AUDIO":2206,"Ġabs":2207,"Ġpret":2208,"claim":2209,"Ġgrie":2210,"CLAUDIO":2211,"Ġchange":2212,"MIONE":2213,"ĠNorfolk":2214,"CLIFFORD":2215,"Ġsuffer":2216,"Ġdeliver":2217,"HERMIONE":2218,"DA":2219,"EDWARD":2220,"LORD":2221,"Most":2222,"cher":2223,"kes":2224,"ses":2225,"ufid":2226,"ĠTh":2227,"Ġsk":2228,"Ġsame":2229,"Ġsick":2230,"Ġsign":2231,"Ġwis":2232,"Ġwall":2233,"ready":2234,"isf":2235,"Ġcast":2236,"irth":2237,"chio":2238,"Ġforb":2239,"Ġforget":2240,"oof":2241,"ries":2242,"Ġreg":2243,"urp":2244,"east":2245,"Ġven":2246,"Ġthemselves":2247,"ĠBianca":2248,"Ġworse":2249,"ĠPom":2250,"Ġtook":2251,"Ġpoison":2252,"Ġalong":2253,"Ġrich":2254,"Ġbreast":2255,"ranio":2256,"Ġconsul":2257,"RANDA":2258,"MIRANDA":2259,"twas":2260,"twere":2261,"Ġcheer":2262,"Ġpatience":2263,"Ġmerry":2264,"Ġorder":2265,"etruchio":2266,"ufidius":2267,"HN":2268,"Messenger":2269,"OHN":2270,"SA":2271,"SON":2272,"Servant":2273,"lst":2274,"oin":2275,"ting":2276,"Ġmouth":2277,"Ġwed":2278,"Ġbad":2279,"Ġbook":2280,"Ġfour":2281,"Ġdu":2282,"ĠIf":2283,"Ġgave":2284,"chm":2285,"Ġissue":2286,"ash":2287,"Ġliber":2288,"vern":2289,"Ġself":2290,"ions":2291,"rows":2292,"ally":2293,"Ġoffice":2294,"Ġalready":2295,"Being":2296,"Ġmove":2297,"Ġvirtue":2298,"Ġgiven":2299,"Ġbattle":2300,"ĠHereford":2301,"Ġmorning":2302,"Ġfurther":2303,"Make":2304,"Since":2305,"mber":2306,"nk":2307,"pes":2308,"rist":2309,"she":2310,"uous":2311,"used":2312,"Ġta":2313,"Ġac":2314,"oun":2315,"Ġwise":2316,"Ġburn":2317,"orge":2318,"Ġfrown":2319,"Ġfeast":2320,"Ġdire":2321,"esh":2322,"Ġlad":2323,"Ġpay":2324,"anus":2325,"Ġgro":2326,"ats":2327,"Ġred":2328,"Ġsoft":2329,"each":2330,"Ġsucc":2331,"icer":2332,"Ġblack":2333,"Ġgoes":2334,"Ġsworn":2335,"ĠSignior":2336,"elcome":2337,"Ġprop":2338,"Ġsons":2339,"Ġfoe":2340,"Ġext":2341,"ĠTower":2342,"Before":2343,"Ġtrou":2344,"Ġbegg":2345,"Ġbegin":2346,"Ġconsent":2347,"dden":2348,"Ġsoldiers":2349,"Ġrequest":2350,"ĠLucentio":2351,"Ġbetween":2352,"Ġquarrel":2353,"Ġsatisf":2354,"chmond":2355,"AS":2356,"Call":2357,"IR":2358,"Must":2359,"NT":2360,"Re":2361,"Sw":2362,"Such":2363,"gare":2364,"ires":2365,"ures":2366,"ung":2367,"uff":2368,"ĠFor":2369,"hem":2370,"Ġservant":2371,"Ġbar":2372,"Ġdro":2373,"Ġdark":2374,"Ġcr":2375,"Ġcase":2376,"Ġthri":2377,"aris":2378,"ots":2379,"stand":2380,"owers":2381,"irm":2382,"Ġloves":2383,"ĠCh":2384,"ends":2385,"Ġbless":2386,"empt":2387,"Ġthence":2388,"Ġworth":2389,"ĠAufidius":2390,"CATES":2391,"Ġexp":2392,"awd":2393,"Ġpresence":2394,"Ġpriv":2395,"Unless":2396,"Alas":2397,"Ġwounds":2398,"Ġdangerous":2399,"Because":2400,"garet":2401,"CATESBY":2402,"LY":2403,"oll":2404,"that":2405,"Ġsigh":2406,"Ġble":2407,"ona":2408,"onour":2409,"Ġhot":2410,"Ġgot":2411,"Ġinter":2412,"Ġund":2413,"Ġev":2414,"Ġsum":2415,"Ġneither":2416,"Ġvict":2417,"emn":2418,"ĠLond":2419,"ĠSir":2420,"ĠVols":2421,"cient":2422,"Ġwars":2423,"Ġflatter":2424,"Ġmighty":2425,"Ġrespect":2426,"Ġdread":2427,"Ġbride":2428,"Ġbrief":2429,"Ġthrone":2430,"Ġvoice":2431,"Ġemb":2432,"aptist":2433,"Ġdeny":2434,"Ġspoke":2435,"Ġwater":2436,"Ġvisit":2437,"ĠLondon":2438,"Both":2439,"BIAN":2440,"JOHN":2441,"Lest":2442,"Rome":2443,"REY":2444,"Yes":2445,"eorge":2446,"ip":2447,"iant":2448,"mand":2449,"ught":2450,"Ġest":2451,"Ġmal":2452,"Ġmortal":2453,"Ġbow":2454,"Ġbab":2455,"Ġfra":2456,"ern":2457,"Ġhur":2458,"Ġtown":2459,"Ġoften":2460,"Ġhaving":2461,"right":2462,"ided":2463,"Ġsudden":2464,"rum":2465,"Ġancient":2466,"Ġspeech":2467,"Ġvow":2468,"ĠGeorge":2469,"Ġloved":2470,"Ġkings":2471,"ĠBaptist":2472,"Ġworship":2473,"LIA":2474,"ĠParis":2475,"Ġsafe":2476,"ired":2477,"ainted":2478,"BAL":2479,"ĠMargaret":2480,"Ġprincely":2481,"BRA":2482,"Ġchamber":2483,"Ġseems":2484,"bey":2485,"Ġbuy":2486,"Ġdeeds":2487,"Whom":2488,"VERS":2489,"ĠRichmond":2490,"Ġbitter":2491,"BIANCA":2492,"BOW":2493,"Welcome":2494,"king":2495,"ls":2496,"lish":2497,"mb":2498,"rt":2499,"sp":2500,"ura":2501,"ĠThou":2502,"ĠThis":2503,"Ġfres":2504,"Ġfetch":2505,"Ġcol":2506,"Ġcross":2507,"Ġcoward":2508,"essed":2509,"Ġlim":2510,"Ġpen":2511,"otion":2512,"ated":2513,"urch":2514,"Ġknock":2515,"antage":2516,"oney":2517,"Ġprot":2518,"ĠGAU":2519,"ĠLady":2520,"ĠSaint":2521,"ĠServant":2522,"Ġkingdom":2523,"ĠPl":2524,"Ġsac":2525,"ELBOW":2526,"Ġheads":2527,"Ġscorn":2528,"Ġrage":2529,"Ġappear":2530,"Ġlead":2531,"Ġwitness":2532,"RIVERS":2533,"Ġpatient":2534,"Ġpromise":2535,"Ġlament":2536,"Ġvaliant":2537,"ĠIsab":2538,"Speak":2539,"Ġsuccess":2540,"ĠBaptista":2541,"ĠGAUNT":2542,"Bes":2543,"Ere":2544,"GUE":2545,"Hold":2546,"TY":2547,"cy":2548,"coun":2549,"nown":2550,"sper":2551,"will":2552,"xford":2553,"ĠKING":2554,"Ġign":2555,"Ġaction":2556,"Ġbro":2557,"Ġbawd":2558,"ities":2559,"Ġcle":2560,"Ġcreat":2561,"Ġcap":2562,"Ġlack":2563,"Ġthrow":2564,"Ġow":2565,"Ġopp":2566,"Ġgall":2567,"Ġforward":2568,"Ġeat":2569,"Ġkins":2570,"Their":2571,"iff":2572,"Ġang":2573,"Ġviol":2574,"antag":2575,"Ġprin":2576,"Ġprithee":2577,"ĠMy":2578,"Ġwash":2579,"ortens":2580,"aken":2581,"ĠPetruchio":2582,"Ġoffer":2583,"Ġleast":2584,"Ġslave":2585,"Ġflesh":2586,"ĠTranio":2587,"Ġprepare":2588,"Ġprayers":2589,"then":2590,"Ġappro":2591,"TAGUE":2592,"Ġtriump":2593,"Ġmoon":2594,"Ġcompl":2595,"itted":2596,"Ġtribunes":2597,"Ġdrink":2598,"ĠChrist":2599,"Romeo":2600,"ortensio":2601,"Yea":2602,"bit":2603,"but":2604,"ees":2605,"joy":2606,"ler":2607,"oor":2608,"ohem":2609,"vest":2610,"Ġid":2611,"Ġsur":2612,"Ġmid":2613,"ines":2614,"Ġfie":2615,"Ġdest":2616,"Ġnay":2617,"Ġthither":2618,"Ġhide":2619,"athar":2620,"Ġbeast":2621,"ley":2622,"Ġreb":2623,"raw":2624,"als":2625,"alth":2626,"cks":2627,"thumber":2628,"host":2629,"asters":2630,"feit":2631,"aked":2632,"pey":2633,"Ġalmost":2634,"ully":2635,"Ġscar":2636,"Ġsmall":2637,"Ġpresently":2638,"Ġfaults":2639,"Ġdepart":2640,"Ġsecret":2641,"Ġsubjects":2642,"Ġdefend":2643,"Ġpossess":2644,"atharina":2645,"thumberland":2646,"Con":2647,"DI":2648,"GI":2649,"IEL":2650,"Pl":2651,"VIR":2652,"Whi":2653,"aul":2654,"hind":2655,"ying":2656,"Ġtear":2657,"Ġwert":2658,"rey":2659,"Ġben":2660,"Ġbase":2661,"Ġbirth":2662,"Ġfill":2663,"Ġfond":2664,"Ġlab":2665,"arl":2666,"Ġpain":2667,"inger":2668,"Ġbec":2669,"Ġform":2670,"Ġeas":2671,"Ġstru":2672,"Ġliving":2673,"rue":2674,"though":2675,"Ġgoodly":2676,"Ġwhence":2677,"ĠGREY":2678,"Ġusurp":2679,"cience":2680,"Ġtrump":2681,"Ġhearing":2682,"Ġslaughter":2683,"Ġperform":2684,"Ġwrit":2685,"perate":2686,"ledge":2687,"Stay":2688,"Stand":2689,"Ġchance":2690,"PERDI":2691,"Ġvirtuous":2692,"Ġquickly":2693,"MONTAGUE":2694,"Ġdamn":2695,"ural":2696,"ohemia":2697,"GILIA":2698,"VIRGILIA":2699,"PERDITA":2700,"Ab":2701,"Doth":2702,"Peace":2703,"SET":2704,"SLY":2705,"ding":2706,"eem":2707,"gg":2708,"iest":2709,"over":2710,"oss":2711,"ror":2712,"your":2713,"ze":2714,"Ġut":2715,"Ġtor":2716,"Ġay":2717,"Ġmatch":2718,"Ġmild":2719,"Ġwild":2720,"read":2721,"isure":2722,"Ġfier":2723,"ony":2724,"Ġca":2725,"Ġcertain":2726,"arn":2727,"Ġpu":2728,"Ġpit":2729,"ingly":2730,"sem":2731,"Ġinj":2732,"Ġins":2733,"Ġinno":2734,"eds":2735,"edant":2736,"Ġur":2737,"Ġshad":2738,"Think":2739,"Ġknee":2740,"Ġkneel":2741,"astard":2742,"ustom":2743,"Ġblows":2744,"ĠSt":2745,"ĠOxford":2746,"Ġquiet":2747,"Ġproceed":2748,"ĠPaul":2749,"Ġhadst":2750,"Ġoffence":2751,"Ġadm":2752,"Ġpleas":2753,"force":2754,"Ġaffection":2755,"Ġslew":2756,"IANA":2757,"Ġlawful":2758,"Ġglad":2759,"bling":2760,"Ġweeping":2761,"MARIANA":2762,"Ġsoldier":2763,"Ġawhile":2764,"Ġdeserved":2765,"Ġexecution":2766,"ĠCoriolanus":2767,"Ġguilty":2768,"Ġpretty":2769,"ĠPompey":2770,"Ġangry":2771,"Fa":2772,"Mar":2773,"Master":2774,"PAR":2775,"RA":2776,"VINCENTIO":2777,"awn":2778,"dge":2779,"fully":2780,"gue":2781,"ked":2782,"med":2783,"ual":2784,"vol":2785,"zen":2786,"Ġap":2787,"Ġshi":2788,"Ġsho":2789,"Ġmed":2790,"Ġmod":2791,"Ġwalk":2792,"Ġfam":2793,"Ġfled":2794,"eness":2795,"Ġyear":2796,"Ġob":2797,"Ġocc":2798,"Ġhap":2799,"Ġmeasure":2800,"Ġforsw":2801,"adua":2802,"Ġreign":2803,"Ġdoom":2804,"ames":2805,"Ġnob":2806,"rupt":2807,"Ġourselves":2808,"Ġfavour":2809,"Ġneck":2810,"Ġshows":2811,"ended":2812,"Ġblow":2813,"Ġgovern":2814,"Ġwouldst":2815,"Ġletters":2816,"Ġunc":2817,"Ġunk":2818,"Ġworst":2819,"Ġspeaks":2820,"Ġmarch":2821,"ighb":2822,"ĠKatharina":2823,"Ġgreater":2824,"Ġleisure":2825,"osition":2826,"Ġtreason":2827,"ĠEnglish":2828,"Ġbanishment":2829,"Ġsense":2830,"remio":2831,"Ġcondemn":2832,"ointed":2833,"Ġdishonour":2834,"Ġclouds":2835,"Ġbreathe":2836,"Ġforbid":2837,"Ġliberty":2838,"Ġladies":2839,"Ġtrouble":2840,"rumio":2841,"ĠIsabel":2842,"counter":2843,"antagen":2844,"PARIS":2845,":'":2846,"Int":2847,"Out":2848,"Too":2849,"While":2850,"aves":2851,"acle":2852,"dle":2853,"house":2854,"rim":2855,"rous":2856,"ĠX":2857,"Ġsort":2858,"Ġmorrow":2859,"Ġwon":2860,"Ġdry":2861,"Ġcru":2862,"Ġlan":2863,"Ġlist":2864,"Ġlaid":2865,"aring":2866,"Ġobey":2867,"Ġheld":2868,"vel":2869,"ster":2870,"ators":2871,"Ġbehind":2872,"set":2873,"Ġnote":2874,"Ġstor":2875,"ider":2876,"Ġref":2877,"Ġlived":2878,"urs":2879,"Ġaside":2880,"Ġdog":2881,"Ġnoise":2882,"Ġseat":2883,"iles":2884,"Ġvain":2885,"ĠMerc":2886,"ĠBohemia":2887,"Ġletter":2888,"Ġjoin":2889,"ounds":2890,"Ġprosper":2891,"Ġrough":2892,"Ġabove":2893,"ize":2894,"Ġremain":2895,"Ġlonger":2896,"Ġwomb":2897,"Ġneeds":2898,"Ġchoose":2899,"Ġchurch":2900,"Ġprisoner":2901,"Ġsecond":2902,"Ġtemp":2903,"Ġgolden":2904,"undred":2905,"Ġdispatch":2906,"Ġpiece":2907,"Ġfresh":2908,"Ġignor":2909,"Ġbecause":2910,"antagenet":2911,"!--":2912,"Am":2913,"De":2914,"DOR":2915,"EW":2916,"En":2917,"Hark":2918,"LAR":2919,"Pr":2920,"Su":2921,"TIUS":2922,"bb":2923,"ban":2924,"cal":2925,"ffect":2926,"him":2927,"iled":2928,"ny":2929,"ts":2930,"under":2931,"ulet":2932,"ĠNow":2933,"Ġtent":2934,"Ġsch":2935,"Ġsus":2936,"Ġsaint":2937,"Ġmut":2938,"inius":2939,"Ġbig":2940,"Ġbroke":2941,"Ġbones":2942,"Ġfat":2943,"Ġfine":2944,"Ġfive":2945,"erle":2946,"itors":2947,"Ġdrown":2948,"Ġcitizens":2949,"Ġlen":2950,"Ġlow":2951,"Ġlust":2952,"Ġlau":2953,"Ġthreat":2954,"Ġhundred":2955,"Ġobed":2956,"Ġpet":2957,"vey":2958,"ang":2959,"Ġoft":2960,"Ġbend":2961,"Ġbell":2962,"Ġind":2963,"ceit":2964,"lease":2965,"ety":2966,"Ġeffect":2967,"Ġyourselves":2968,"Ġstood":2969,"Ġstain":2970,"Ġsteel":2971,"Ġsteal":2972,"ords":2973,"asion":2974,"Ġrevere":2975,"Ġsole":2976,"ARIEL":2977,"ease":2978,"Ġknees":2979,"ular":2980,"icious":2981,"Ġconqu":2982,"ieu":2983,"Ġblessed":2984,"ĠGaunt":2985,"ĠGremio":2986,"Ġshed":2987,"ĠLet":2988,"ĠLEW":2989,"Ġswift":2990,"ĠHortensio":2991,"Ġgrand":2992,"Ġproclaim":2993,"ĠPr":2994,"ĠPadua":2995,"Ġsaf":2996,"ume":2997,"ĠWatch":2998,"istress":2999,"Ġexc":3000,"Ġdesperate":3001,"Ġslander":3002,"Ġprecious":3003,"Ġbears":3004,"Ġappare":3005,"Ġconscience":3006,"Ġentertain":3007,"ontent":3008,"Ġpride":3009,"Sirrah":3010,"uthor":3011,"Ġglory":3012,"Ġdouble":3013,"atesby":3014,"Ġwoes":3015,"posed":3016,"Ġlands":3017,"Ġsentence":3018,"ĠNorthumberland":3019,"Ġdrunk":3020,"Ġtowards":3021,"ĠCapulet":3022,"Unto":3023,"Ġforgot":3024,"Ġwisdom":3025,"Ġvenge":3026,"Sweet":3027,"Ġvictory":3028,"Ġkinsman":3029,"ĠXI":3030,"LARTIUS":3031,"ĠLEWIS":3032,"ĠWatchman":3033,";'":3034,"Bel":3035,"Could":3036,"Hear":3037,"MP":3038,"Me":3039,"Pardon":3040,"Pedant":3041,"RTIS":3042,"bray":3043,"den":3044,"gment":3045,"hn":3046,"iance":3047,"ohn":3048,"pir":3049,"ude":3050,"vail":3051,"which":3052,"head":3053,"Ġauthor":3054,"Ġsour":3055,"Ġmount":3056,"Ġmethinks":3057,"Ġmoney":3058,"Ġmasters":3059,"rent":3060,"rence":3061,"Ġfe":3062,"Ġfru":3063,"Ġfought":3064,"Ġfew":3065,"Ġdied":3066,"Ġdeter":3067,"Ġcapt":3068,"Ġpun":3069,"owbray":3070,"Ġhair":3071,"irl":3072,"Ġeld":3073,"Ġstud":3074,"estion":3075,"Ġdoing":3076,"iful":3077,"Ġseal":3078,"ility":3079,"ĠCa":3080,"cted":3081,"ETER":3082,"Ġmanner":3083,"ĠEarl":3084,"ĠGo":3085,"ĠGrumio":3086,"Ġknowledge":3087,"umerle":3088,"Ġenjoy":3089,"Ġran":3090,"ĠAnt":3091,"Within":3092,"Ġalive":3093,"Ġabro":3094,"ways":3095,"Ġhonours":3096,"Ġwarm":3097,"ations":3098,"Ġdeadly":3099,"Ġkept":3100,"Ġcontr":3101,"Ġcontin":3102,"Ġarmy":3103,"Ġlordship":3104,"Ġguest":3105,"Ġguess":3106,"CURTIS":3107,"Ġpromised":3108,"comes":3109,"eeper":3110,"Ġwretched":3111,"Ġdespair":3112,"Ġcheeks":3113,"SAMP":3114,"Ġlabour":3115,"Ġstruck":3116,"Faith":3117,"Ġdeterm":3118,"SAMPSON":3119,"'re":3120,":--":3121,"BU":3122,"Br":3123,"Citizens":3124,"Dis":3125,"EX":3126,"Either":3127,"IGON":3128,"bury":3129,"ey":3130,"good":3131,"mit":3132,"take":3133,"Ġtry":3134,"Ġteach":3135,"Ġaid":3136,"ounce":3137,"Ġsim":3138,"reed":3139,"Ġbastard":3140,"orious":3141,"llow":3142,"ited":3143,"Ġdance":3144,"Ġcorn":3145,"Ġcred":3146,"Ġcried":3147,"Ġpal":3148,"Ġhel":3149,"Ġhealth":3150,"stant":3151,"utio":3152,"ourn":3153,"Ġliest":3154,"Ġdeg":3155,"Ġdemand":3156,"Ġshake":3157,"eaven":3158,"ament":3159,"Ġsever":3160,"Ġherself":3161,"Ġspent":3162,"ĠMaster":3163,"ĠMowbray":3164,"Ġwhether":3165,"Ġamong":3166,"Ġshepherd":3167,"othing":3168,"ppy":3169,"Ġunp":3170,"Ġunw":3171,"ĠHow":3172,"Ġquoth":3173,"Ġprov":3174,"umb":3175,"Ġplant":3176,"ĠWill":3177,"ĠWhy":3178,"osed":3179,"Ġencounter":3180,"Ġrot":3181,"Ġofficer":3182,"Ġbrothers":3183,"Ġearly":3184,"Ġhonourable":3185,"Ġflowers":3186,"LEY":3187,"Ġcalls":3188,"Ġwhite":3189,"Ġremed":3190,"Ġmoved":3191,"Ġaccount":3192,"ewis":3193,"Ġkindred":3194,"Ġpriest":3195,"Ġguard":3196,"Ġcharity":3197,"Ġunderstand":3198,"Ġfoolish":3199,"Ġhumble":3200,"Ġcounter":3201,"Ġdreams":3202,"Ġgreet":3203,"ANTIGON":3204,"Ġvalour":3205,"Ġjudge":3206,"Ġwretch":3207,"Ġbeggar":3208,"Ġsummer":3209,"Ġtriumph":3210,"Ġcruel":3211,"BURY":3212,"ANTIGONUS":3213,"Bet":3214,"Fear":3215,"Lo":3216,"Mine":3217,"Made":3218,"TCLIFF":3219,"True":3220,"fall":3221,"mon":3222,"rison":3223,"ĠAnd":3224,"heart":3225,"ining":3226,"Ġwail":3227,"orthy":3228,"Ġfart":3229,"Ġfaint":3230,"ites":3231,"Ġdin":3232,"Ġdwell":3233,"Ġyea":3234,"Ġthro":3235,"Ġhung":3236,"Ġpack":3237,"Ġga":3238,"Ġgent":3239,"leep":3240,"Ġforce":3241,"Ġweary":3242,"Ġstone":3243,"Ġstars":3244,"ask":3245,"roy":3246,"Ġbutcher":3247,"ify":3248,"Ġseven":3249,"Ġanon":3250,"Ġours":3251,"ĠCom":3252,"Ġneighb":3253,"ĠRoman":3254,"Ġvie":3255,"ief":3256,"Ġblame":3257,"Ġgoing":3258,"ĠLewis":3259,"Ġthereof":3260,"Ġunf":3261,"Ġuns":3262,"Ġenvy":3263,"Ġrise":3264,"Ġthinks":3265,"Ġrid":3266,"Ġparty":3267,"Ġadd":3268,"Ġothers":3269,"ĠJohn":3270,"ians":3271,"Ġkindness":3272,"Ġchast":3273,"Ġbids":3274,"Ġbright":3275,"Ġglass":3276,"Ġmiser":3277,"Ġcrave":3278,"Twas":3279,"Ġwinter":3280,"Ġmonth":3281,"Ġminister":3282,"Ġwalls":3283,"Ġextrem":3284,"Ġsatisfied":3285,"Ġprivate":3286,"ĠVolsces":3287,"Ġidle":3288,"Ġscarce":3289,"Ġbenef":3290,"RATCLIFF":3291,"Ġlaugh":3292,"Ġvengeance":3293,"Ġabroad":3294,"Ġview":3295,"After":3296,"Bid":3297,"BIS":3298,"Fie":3299,"Gentle":3300,"HOP":3301,"Ne":3302,"Never":3303,"Signior":3304,"Under":3305,"aff":3306,"gra":3307,"ners":3308,"ope":3309,"shall":3310,"ued":3311,"vious":3312,"whe":3313,"woman":3314,"Ġver":3315,"incentio":3316,"Ġwre":3317,"Ġwench":3318,"rees":3319,"have":3320,"orous":3321,"Ġfirm":3322,"Ġcir":3323,"Ġcorse":3324,"enes":3325,"Ġlest":3326,"Ġhol":3327,"vell":3328,"ott":3329,"omas":3330,"att":3331,"ating":3332,"Ġincl":3333,"cell":3334,"utland":3335,"Ġformer":3336,"Ġease":3337,"riar":3338,"ident":3339,"Ġrel":3340,"Ġreceived":3341,"Ġdeal":3342,"amp":3343,"Ġsport":3344,"Ġfaire":3345,"ANLEY":3346,"ĠRutland":3347,"Ġvile":3348,"Ġshrew":3349,"antua":3350,"ĠMantua":3351,"Ġconcl":3352,"Ġconvey":3353,"Ġgod":3354,"allow":3355,"ĠBarn":3356,"Ġarri":3357,"Ġunb":3358,"ĠHer":3359,"ĠVincentio":3360,"Ġmayst":3361,"eless":3362,"Ġquite":3363,"Ġprovost":3364,"IST":3365,"Ġtruly":3366,"Ġdism":3367,"Off":3368,"Ġfoes":3369,"Ġroot":3370,"Ġwherefore":3371,"Ġflower":3372,"Ġimag":3373,"Ġtrial":3374,"ailor":3375,"Ġsmo":3376,"Ġtrem":3377,"Ġfellows":3378,"rench":3379,"Ġchanged":3380,"Ġcover":3381,"Ġhumour":3382,"Ġboot":3383,"Ġswords":3384,"Ġdeputy":3385,"Ġcondition":3386,"Ġjudgment":3387,"change":3388,"Ġtyrant":3389,"Ġacqu":3390,"Ġevil":3391,"BALT":3392,"TYBALT":3393,"Whilst":3394,"Ġeasy":3395,"ĠMercutio":3396,"Ġschool":3397,"Ġexcuse":3398,"Ġfruit":3399,"BISHOP":3400,"'?":3401,"AL":3402,"Bl":3403,"Des":3404,"Ex":3405,"KEN":3406,"Methinks":3407,"Put":3408,"Tut":3409,"ault":3410,"after":3411,"con":3412,"ek":3413,"ead":3414,"ered":3415,"his":3416,"oot":3417,"pin":3418,"roth":3419,"rate":3420,"shi":3421,"ta":3422,"vish":3423,"Ġtaken":3424,"Ġwither":3425,"Ġba":3426,"Ġbrow":3427,"Ġbite":3428,"Ġbrows":3429,"Ġfain":3430,"Ġfeed":3431,"erona":3432,"Ġdust":3433,"Ġdull":3434,"enance":3435,"Ġthunder":3436,"Ġpains":3437,"anley":3438,"Ġgown":3439,"Ġgrown":3440,"Ġgift":3441,"Ġghost":3442,"Ġgirl":3443,"Ġbeha":3444,"Ġmeat":3445,"rift":3446,"Ġstab":3447,"Ġstoop":3448,"idings":3449,"ract":3450,"arden":3451,"Ġspe":3452,"Ġspake":3453,"Ġspring":3454,"ilia":3455,"ĠCatesby":3456,"Ġknave":3457,"AND":3458,"Ġvice":3459,"aste":3460,"Ġshore":3461,"Ġproof":3462,"Ġblest":3463,"Ġblind":3464,"ement":3465,"Ġsirrah":3466,"Ġunl":3467,"Ġquestion":3468,"Ġjoint":3469,"cians":3470,"ĠWe":3471,"ĠAl":3472,"ĠAumerle":3473,"Ġhonesty":3474,"ursed":3475,"Ġleaves":3476,"Ġtwice":3477,"aper":3478,"ĠKeeper":3479,"Ġprevent":3480,"OMAS":3481,"there":3482,"ĠMars":3483,"Ġrepent":3484,"Ġtraitors":3485,"twixt":3486,"Ġimport":3487,"Ġwrongs":3488,"Ġburied":3489,"ealous":3490,"place":3491,"Ġreasons":3492,"Alack":3493,"Ġsenate":3494,"Ġgreen":3495,"Ġaffair":3496,"acher":3497,"Ġchoice":3498,"azed":3499,"Ġdivine":3500,"ĠCorioli":3501,"Ġwhilst":3502,"Ġstop":3503,"Ġtyran":3504,"Ġprophe":3505,"Ġembrace":3506,"Ġmalice":3507,"BRAKEN":3508,"ĠPlantagenet":3509,"Ġsacred":3510,"Ġfiery":3511,"Ġinnocent":3512,"ĠPaulina":3513,"Ġleng":3514,"ĠPrince":3515,"Ġsafety":3516,"ĠCominius":3517,"BRAKENBURY":3518,"?'":3519,"Ad":3520,"DER":3521,"DON":3522,"Edward":3523,"GOR":3524,"Hence":3525,"Ind":3526,"MIST":3527,"Once":3528,"Richard":3529,"RESS":3530,"cha":3531,"draw":3532,"eld":3533,"go":3534,"mn":3535,"my":3536,"more":3537,"nat":3538,"op":3539,"oly":3540,"oard":3541,"pet":3542,"port":3543,"poll":3544,"sic":3545,"would":3546,"Ġed":3547,"ĠTo":3548,"Ġavo":3549,"Ġsits":3550,"inous":3551,"Ġwag":3552,"Ġwings":3553,"rehe":3554,"Ġbark":3555,"orry":3556,"Ġfury":3557,"Ġfinger":3558,"erset":3559,"itol":3560,"Ġcustom":3561,"enen":3562,"anch":3563,"omerset":3564,"Ġgross":3565,"Ġgarden":3566,"Ġinform":3567,"edious":3568,"Ġused":3569,"Ġweeds":3570,"Ġele":3571,"Ġeag":3572,"Ġstones":3573,"Ġdec":3574,"Ġdoor":3575,"Ġnose":3576,"Ġallow":3577,"think":3578,"Ġanger":3579,"ardine":3580,"Ġloath":3581,"Ġloyal":3582,"ellow":3583,"Ġfares":3584,"Ġnecess":3585,"Ġknight":3586,"ctise":3587,"Ġshr":3588,"Ġoracle":3589,"ĠOVER":3590,"Myself":3591,"hysic":3592,"Ġmayor":3593,"elve":3594,"Ġhollow":3595,"Ġsail":3596,"Ġplague":3597,"unning":3598,"Ġround":3599,"Ġfright":3600,"icked":3601,"Without":3602,"Ġalways":3603,"Ġrob":3604,"Ġrock":3605,"Ġwherein":3606,"Ġdesign":3607,"Wherein":3608,"aughters":3609,"Ġadieu":3610,"Ġcommend":3611,"Ġclaim":3612,"Ġprevail":3613,"Ġprayer":3614,"PETER":3615,"Ġplead":3616,"Ġperceive":3617,"Ġtroth":3618,"Ġrude":3619,"Ġtongues":3620,"Ġsubst":3621,"Ġsmile":3622,"Ġimprison":3623,"Ġcares":3624,"GREGOR":3625,"Ġdrawn":3626,"Ġempt":3627,"Ġwanton":3628,"Ġassist":3629,"unts":3630,"Ġtempt":3631,"Ġdeserve":3632,"Ġdelight":3633,"ĠCapitol":3634,"Ġpractise":3635,"Ġcheek":3636,"Ġabsence":3637,"ĠThomas":3638,"Ġdrop":3639,"Ġcreature":3640,"Ġtrumpets":3641,"Ġutter":3642,"Ġlangu":3643,"Ġignorant":3644,"Brother":3645,"Ġrotten":3646,"Ġremedy":3647,"Ġcirc":3648,"ĠBarnardine":3649,"DERBY":3650,"DONE":3651,"Indeed":3652,"MISTRESS":3653,"enenius":3654,"ĠOVERDONE":3655,"GREGORY":3656,"Art":3657,"CH":3658,"Dost":3659,"FORD":3660,"OX":3661,"Poor":3662,"Res":3663,"RICH":3664,"SOM":3665,"Turn":3666,"VAL":3667,"act":3668,"dy":3669,"eous":3670,"mion":3671,"sing":3672,"thi":3673,"what":3674,"yard":3675,"Ġes":3676,"ĠWhere":3677,"Ġtune":3678,"Ġtidings":3679,"Ġtedious":3680,"held":3681,"Ġaim":3682,"Ġaught":3683,"Ġship":3684,"Ġsens":3685,"Ġwent":3686,"Ġwont":3687,"Ġwives":3688,"Ġwicked":3689,"haps":3690,"isa":3691,"ises":3692,"onounce":3693,"Ġdur":3694,"Ġcre":3695,"Ġcell":3696,"Ġcure":3697,"Ġcarry":3698,"Ġcries":3699,"esy":3700,"Ġnumber":3701,"Ġlar":3702,"Ġloud":3703,"Ġthrust":3704,"Ġhit":3705,"Ġhid":3706,"Ġpil":3707,"Ġpair":3708,"othe":3709,"Ġbecomes":3710,"cend":3711,"utes":3712,"iment":3713,"rious":3714,"Ġstar":3715,"Ġstat":3716,"Ġsteed":3717,"ashi":3718,"Ġreceive":3719,"Ġasleep":3720,"Ġdew":3721,"Ġdeceived":3722,"Ġdeposed":3723,"Ġshar":3724,"this":3725,"ards":3726,"hant":3727,"Ġvantage":3728,"ERIA":3729,"ERSET":3730,"ĠMusic":3731,"Ġconj":3732,"ongs":3733,"ĠGrey":3734,"Ġsheep":3735,"Ġtherein":3736,"ĠSic":3737,"ĠSomerset":3738,"ĠVerona":3739,"Ġjealous":3740,"Ġshouldst":3741,"Ġproper":3742,"Ġras":3743,"Ġoutward":3744,"Ġwhole":3745,"Ġoffend":3746,"ĠYour":3747,"Ġalas":3748,"Ġheav":3749,"Ġearn":3750,"eeth":3751,"Ġmeaning":3752,"aced":3753,"Ġchief":3754,"Ġbegins":3755,"ĠJove":3756,"Ġruin":3757,"loved":3758,"ission":3759,"Ġresign":3760,"Ġfollows":3761,"Ġtread":3762,"Ġtreacher":3763,"ethought":3764,"Ġbanished":3765,"Ġpassing":3766,"Ġwoful":3767,"Ġdevise":3768,"Ġfollowers":3769,"Ġfools":3770,"Ġmaids":3771,"Show":3772,"Ġadvise":3773,"Ġgives":3774,"itting":3775,"Ġrememb":3776,"Ġawake":3777,"Ġborne":3778,"Ġsupper":3779,"Ġlamb":3780,"Ġcondu":3781,"aze":3782,"Ġsilence":3783,"Ġpossible":3784,"Having":3785,"Ġprofess":3786,"Ġdespite":3787,"MOND":3788,"Ġgarments":3789,"Ġcastle":3790,"Ġthrive":3791,"Ġexpress":3792,"Ġundone":3793,"Ġdreadful":3794,"Ġbabe":3795,"Ġprotect":3796,"Besides":3797,"Ġbroken":3798,"Ġviolent":3799,"ĠChristian":3800,"Ġpubl":3801,"Ġoccasion":3802,"Ġnobles":3803,"Into":3804,"ursday":3805,"Ġfatal":3806,"Ġbelly":3807,"Ġauthority":3808,"Ġsimple":3809,"Ġfarther":3810,"Ġthroat":3811,"Ġbenefit":3812,"pinion":3813,"Ġaffairs":3814,"pollo":3815,"OXFORD":3816,"RICHMOND":3817,"SOMERSET":3818,"VALERIA":3819,"mione":3820,"AMIL":3821,"BUS":3822,"Great":3823,"HY":3824,"Hast":3825,"LIUS":3826,"MOP":3827,"MAMIL":3828,"Per":3829,"Tybalt":3830,"Tailor":3831,"Very":3832,"app":3833,"cing":3834,"can":3835,"eg":3836,"fl":3837,"father":3838,"gle":3839,"iond":3840,"oat":3841,"pr":3842,"ron":3843,"son":3844,"ub":3845,"Ġer":3846,"Ġir":3847,"ĠThere":3848,"Ġtort":3849,"Ġtaste":3850,"Ġsan":3851,"Ġsix":3852,"Ġsorry":3853,"Ġwine":3854,"Ġwander":3855,"Ġband":3856,"Ġbond":3857,"erved":3858,"itude":3859,"Ġdet":3860,"Ġdue":3861,"Ġcal":3862,"Ġcam":3863,"Ġcunning":3864,"ene":3865,"enn":3866,"Ġnine":3867,"Ġnames":3868,"Ġlend":3869,"arch":3870,"Ġtop":3871,"Ġpin":3872,"Ġpawn":3873,"Ġpaper":3874,"Ġphysic":3875,"Ġgain":3876,"Ġgage":3877,"Ġbelike":3878,"Ġbeheld":3879,"Ġinfect":3880,"ldom":3881,"eding":3882,"utation":3883,"Ġweight":3884,"Ġweap":3885,"ills":3886,"Ġequ":3887,"enture":3888,"Ġstore":3889,"Ġstep":3890,"Ġstock":3891,"Ġstuff":3892,"Ġrenown":3893,"rand":3894,"Ġlip":3895,"Ġdeare":3896,"room":3897,"eave":3898,"usion":3899,"iffe":3900,"Ġseas":3901,"Ġsup":3902,"run":3903,"Ġange":3904,"Ġlod":3905,"ello":3906,"Ġspend":3907,"Ġspare":3908,"hop":3909,"Ġvan":3910,"ouses":3911,"Ġshut":3912,"ustice":3913,"ĠMOW":3914,"ĠMenenius":3915,"olix":3916,"Ġsway":3917,"Ġbrook":3918,"Ġkingly":3919,"ĠBona":3920,"Ġunnat":3921,"ĠHarry":3922,"Ġquit":3923,"imely":3924,"Ġenvious":3925,"Ġrash":3926,"Ġdisd":3927,"ABHOR":3928,"Ġroom":3929,"Ġexile":3930,"Ġexcell":3931,"Ġdesert":3932,"Ġgentlewoman":3933,"Ġflight":3934,"Ġtwelve":3935,"Ġparts":3936,"Ġprey":3937,"THOMAS":3938,"Ġperil":3939,"Ġperish":3940,"Ġtrans":3941,"iteous":3942,"ĠFriar":3943,"Ġwhither":3944,"swain":3945,"Ġuntil":3946,"Ġaffect":3947,"Ġlean":3948,"Ġlegs":3949,"orses":3950,"Ġkeeps":3951,"Ġaccus":3952,"STANLEY":3953,"Ġprize":3954,"Ġpursu":3955,"Ġchair":3956,"Ġcountenance":3957,"Ġpleased":3958,"ounty":3959,"Ġhumbly":3960,"Ġcourtesy":3961,"Ġadvantage":3962,"Ġcurst":3963,"ploy":3964,"Ġspirits":3965,"Two":3966,"Ġintend":3967,"Ġdenied":3968,"ancy":3969,"Ġdisposition":3970,"Ġbetwixt":3971,"Ġsilver":3972,"Ġdelay":3973,"Ġresolve":3974,"ĠThursday":3975,"Ġwedding":3976,"Ġsighs":3977,"Ġhurt":3978,"BRAY":3979,"Ġcolour":3980,"Ġclear":3981,"Ġowe":3982,"Ġprepared":3983,"Ġdamned":3984,"Ġshadow":3985,"Ġpleasant":3986,"Ġforsworn":3987,"Ġstorm":3988,"Death":3989,"Ġthreaten":3990,"Ġconquer":3991,"Ġpunish":3992,"ĠCaius":3993,"Ġcontrary":3994,"EXETER":3995,"Ġpalace":3996,"Ġdinner":3997,"Ġneighbour":3998,"Ġmiserable":3999,"Ġspeci":4000,"Ġempty":4001,"ĠMusician":4002,"BUSHY":4003,"MOPSA":4004,"MAMILLIUS":4005,"iondello":4006,"Ġsanct":4007,"ĠMOWBRAY":4008,"olixenes":4009,"ABHORSON":4010,"CY":4011,"Cousin":4012,"Ed":4013,"Know":4014,"None":4015,"Nothing":4016,"Pre":4017,"Ret":4018,"Right":4019,"Rem":4020,"Rep":4021,"Sc":4022,"Sha":4023,"Widow":4024,"bow":4025,"born":4026,"grace":4027,"hor":4028,"hore":4029,"lar":4030,"mity":4031,"oc":4032,"oke":4033,"par":4034,"ping":4035,"pic":4036,"pass":4037,"tune":4038,"urious":4039,"we":4040,"wise":4041,"yond":4042,"ĠWhen":4043,"Ġtut":4044,"Ġtable":4045,"Ġscept":4046,"Ġmiss":4047,"Ġmurderer":4048,"Ġmaking":4049,"Ġmotion":4050,"Ġmourn":4051,"Ġwot":4052,"Ġwood":4053,"Ġwol":4054,"Ġwond":4055,"rease":4056,"Ġbas":4057,"Ġbare":4058,"Ġball":4059,"Ġbud":4060,"ising":4061,"Ġfle":4062,"Ġfro":4063,"Ġfee":4064,"Ġfashi":4065,"erve":4066,"Ġdi":4067,"Ġdign":4068,"Ġdies":4069,"Ġdag":4070,"Ġdaughters":4071,"Ġcens":4072,"Ġcup":4073,"Ġcalm":4074,"ency":4075,"Ġnaked":4076,"Ġyonder":4077,"Ġopinion":4078,"Ġpure":4079,"Ġport":4080,"Ġpainted":4081,"Ġpiteous":4082,"Ġheed":4083,"ote":4084,"ane":4085,"Ġgate":4086,"Ġbew":4087,"Ġbeloved":4088,"sequ":4089,"irg":4090,"Ġmend":4091,"ourish":4092,"Ġweigh":4093,"rib":4094,"Ġstory":4095,"Ġreward":4096,"urance":4097,"Ġdebt":4098,"Ġones":4099,"ARCH":4100,"amed":4101,"Ġseest":4102,"Three":4103,"ruly":4104,"thou":4105,"Ġfail":4106,"ERCY":4107,"que":4108,"Ġgoodness":4109,"Ġpronounce":4110,"Ġcomple":4111,"ĠMessenger":4112,"Ġamb":4113,"Ġamen":4114,"outs":4115,"oler":4116,"Ġhatred":4117,"Ġtheirs":4118,"ĠBiondello":4119,"Ġarg":4120,"igence":4121,"Ġquench":4122,"Ġhopes":4123,"cio":4124,"cian":4125,"Ġseeing":4126,"ĠPro":4127,"ĠPeter":4128,"ĠPisa":4129,"ĠPolixenes":4130,"ĠPERCY":4131,"umble":4132,"Ġplot":4133,"Ġdiss":4134,"Ġexpect":4135,"Ġslow":4136,"Ġado":4137,"THAS":4138,"ĠDid":4139,"Ġperfect":4140,"Ġperpet":4141,"Ġwrath":4142,"Thanks":4143,"lesome":4144,"ĠFl":4145,"Ġremains":4146,"Ġcrowns":4147,"Ġhark":4148,"Ġcourage":4149,"Ġwits":4150,"clock":4151,"Ġaccess":4152,"Ġaccuse":4153,"Ġfolly":4154,"Only":4155,"Ġends":4156,"Ġendure":4157,"Ġneedful":4158,"Still":4159,"Ġbodies":4160,"Ġjoys":4161,"Ġjoyful":4162,"Ġfortunes":4163,"Ġmistake":4164,"Ġnatural":4165,"Ġhappiness":4166,"Ġmisery":4167,"Ġundertake":4168,"Ġchide":4169,"Ġattempt":4170,"Ġadvance":4171,"Ġcurses":4172,"Ġemploy":4173,"Ġassurance":4174,"Ġpersu":4175,"Ġdiscontent":4176,"Ġsenators":4177,"Ġcrack":4178,"Ġintent":4179,"Ġsometime":4180,"Ġwounded":4181,"Ġspoken":4182,"Ġdrum":4183,"Ġmarket":4184,"cape":4185,"Ġwaters":4186,"Ġcursed":4187,"Ġinstruct":4188,"Ġinstrument":4189,"ĠNap":4190,"ĠRivers":4191,"Ġterror":4192,"Ġresolved":4193,"chance":4194,"Ġwhiles":4195,"Ġcorrupt":4196,"ney":4197,"Ġburthen":4198,"Ġgriev":4199,"Ġduked":4200,"Ġaccept":4201,"Ġgroan":4202,"BALTHAS":4203,"Ġcolours":4204,"Ġpenit":4205,"Ġprotest":4206,"Ġprinces":4207,"Ġprincess":4208,"ĠStanley":4209,"Ġgovernment":4210,"Prithee":4211,"Ġobedience":4212,"Ġpetition":4213,"Ġsolemn":4214,"Believe":4215,"Ġcontinue":4216,"Ġcredit":4217,"Ġseveral":4218,"hearted":4219,"Ġwreck":4220,"Ġlanguage":4221,"Ġcircum":4222,"Ġdurst":4223,"Ġremembrance":4224,"Ġpublic":4225,"Ġunnatural":4226,"picion":4227,"Ġdukedom":4228,"BALTHASAR":4229,"?--":4230,"Ar":4231,"App":4232,"AEd":4233,"Bear":4234,"Boat":4235,"Father":4236,"FOL":4237,"Heaven":4238,"Love":4239,"Might":4240,"Mark":4241,"OS":4242,"Post":4243,"Page":4244,"Save":4245,"afe":4246,"bear":4247,"do":4248,"dds":4249,"ex":4250,"fer":4251,"gers":4252,"how":4253,"ipe":4254,"just":4255,"lic":4256,"oe":4257,"oved":4258,"ped":4259,"pro":4260,"sc":4261,"same":4262,"time":4263,"uary":4264,"val":4265,"vours":4266,"yr":4267,"ĠNay":4268,"ĠThey":4269,"Ġtest":4270,"Ġteeth":4271,"hest":4272,"Ġsink":4273,"Ġsins":4274,"Ġmag":4275,"Ġmile":4276,"ination":4277,"happy":4278,"ishop":4279,"Ġfame":4280,"erd":4281,"ita":4282,"Ġcock":4283,"Ġcease":4284,"ences":4285,"Ġnought":4286,"Ġled":4287,"aries":4288,"Ġhost":4289,"Ġhunt":4290,"Ġhouses":4291,"Ġhorses":4292,"Ġodd":4293,"Ġobs":4294,"Ġodds":4295,"Ġtomb":4296,"Ġpol":4297,"Ġpowers":4298,"strous":4299,"omp":4300,"omen":4301,"atic":4302,"atience":4303,"Ġbeyond":4304,"Ġhaz":4305,"uted":4306,"Ġmere":4307,"Ġisle":4308,"Ġisland":4309,"ourage":4310,"Ġeast":4311,"Ġits":4312,"Ġkin":4313,"idence":4314,"Ġrepe":4315,"Ġrealm":4316,"Ġshape":4317,"uses":4318,"ified":4319,"Ġseize":4320,"Those":4321,"Ġspite":4322,"Ġfaces":4323,"ĠCan":4324,"ĠCal":4325,"ĠROS":4326,"Ġvault":4327,"Ġvirg":4328,"Ġshun":4329,"ants":4330,"Ġcomest":4331,"Ġmanners":4332,"ĠEl":4333,"icular":4334,"Ġconc":4335,"ieved":4336,"Ġblock":4337,"Ġblush":4338,"ĠGood":4339,"ared":4340,"arent":4341,"olute":4342,"Ġhereafter":4343,"Ġswallow":4344,"Ġbrings":4345,"ĠSo":4346,"ĠBl":4347,"elt":4348,"Ġqual":4349,"Ġjour":4350,"Young":4351,"akest":4352,"ument":4353,"Ġfathers":4354,"ĠWho":4355,"Ġenmity":4356,"Ġring":4357,"CAS":4358,"ĠYet":4359,"Ġalter":4360,"Ġlooking":4361,"Ġfriendly":4362,"Ġslay":4363,"Ġflies":4364,"ĠTake":4365,"Ġfairly":4366,"tled":4367,"Ġadvers":4368,"Ġclo":4369,"Ġwrite":4370,"Ġtrade":4371,"Ġways":4372,"Ġscope":4373,"Ġscene":4374,"aintain":4375,"they":4376,"Ġkey":4377,"ĠFrench":4378,"Ġapprehe":4379,"Ġcontract":4380,"Ġwhore":4381,"Ġarmour":4382,"ctions":4383,"Ġuntimely":4384,"ression":4385,"Ġimm":4386,"Ġrepair":4387,"Ġrule":4388,"Ġleads":4389,"Ġslept":4390,"Ġaccord":4391,"Ġpurcha":4392,"Ġcompass":4393,"orset":4394,"Ġseeming":4395,"Ġbrain":4396,"Ġglorious":4397,"Ġimposs":4398,"Ġpassage":4399,"Ġmaiden":4400,"Ġhateful":4401,"Ġstrew":4402,"Ġturns":4403,"uteous":4404,"Ġinstant":4405,"Ġboar":4406,"Ġwants":4407,"NORFOL":4408,"Ġdiscover":4409,"Ġcommanded":4410,"Ġhanging":4411,"Ġcontented":4412,"Ġdares":4413,"Ġfreely":4414,"Ġgrey":4415,"Ġservices":4416,"Ġtemper":4417,"Ġdrums":4418,"Ġcholer":4419,"Ġgrows":4420,"Ġdeserves":4421,"noon":4422,"ĠLucio":4423,"Ġgranted":4424,"Comm":4425,"Ġterms":4426,"Ġincrease":4427,"Ġresolution":4428,"Ġshortly":4429,"Ġvex":4430,"Ġpraise":4431,"Ġabsent":4432,"Ġvenom":4433,"Ġdrops":4434,"Ġprivile":4435,"Ġrespected":4436,"Ġframe":4437,"Beseech":4438,"Ġapproach":4439,"Ġcomplain":4440,"Ġtorment":4441,"Ġunknown":4442,"Ġprosperous":4443,"DORCAS":4444,"Ġsuspicion":4445,"Ġreverend":4446,"Ġapparel":4447,"Ġcaptain":4448,"Ġdegree":4449,"ĠHermione":4450,"Ġsmooth":4451,"Ġlarge":4452,"Ġsharp":4453,"Ġearnest":4454,"Ġcamest":4455,"Ġdisdain":4456,"Ġexcellent":4457,"Ġsceptre":4458,"Ġdagger":4459,"ĠNaples":4460,"Boatswain":4461,"ĠROSS":4462,"NORFOLK":4463,"Amen":4464,"Boy":4465,"Came":4466,"Cons":4467,"DIN":4468,"Dear":4469,"FER":4470,"GH":4471,"Ghost":4472,"Has":4473,"Long":4474,"Mistress":4475,"NS":4476,"Please":4477,"RR":4478,"Roman":4479,"Set":4480,"Wilt":4481,"Worthy":4482,"aces":4483,"aily":4484,"bri":4485,"bra":4486,"dis":4487,"fret":4488,"gl":4489,"gar":4490,"iven":4491,"iate":4492,"ipp":4493,"kin":4494,"ker":4495,"law":4496,"pul":4497,"uce":4498,"wife":4499,"ĠTherefore":4500,"Ġtame":4501,"Ġtaught":4502,"Ġtap":4503,"Ġtide":4504,"Ġable":4505,"Ġsqu":4506,"Ġsouth":4507,"Ġmor":4508,"Ġmill":4509,"Ġmessenger":4510,"iny":4511,"reg":4512,"reland":4513,"reme":4514,"Ġbird":4515,"Ġbury":4516,"isper":4517,"Ġfig":4518,"Ġfurn":4519,"itus":4520,"Ġdig":4521,"Ġdress":4522,"Ġdaily":4523,"Ġchat":4524,"Ġcatch":4525,"Ġlark":4526,"Ġthorn":4527,"Ġthief":4528,"Ġparent":4529,"ĠIreland":4530,"ances":4531,"omans":4532,"ater":4533,"ature":4534,"atcl":4535,"Ġbef":4536,"Ġbeard":4537,"Ġbethink":4538,"Ġmeant":4539,"Ġweather":4540,"Ġwept":4541,"ades":4542,"ricians":4543,"Ġstol":4544,"Ġstamp":4545,"Ġrej":4546,"Ġrecom":4547,"Ġrevol":4548,"Ġlion":4549,"aline":4550,"Ġwilling":4551,"Ġwillingly":4552,"Ġnobl":4553,"Ġnobly":4554,"andal":4555,"Ġseason":4556,"Ġsull":4557,"Ġsuck":4558,"Ġspr":4559,"Ġspur":4560,"ĠCo":4561,"ĠCons":4562,"Ġknife":4563,"ĠRos":4564,"ĠRomans":4565,"Ġvows":4566,"Ġcomb":4567,"ĠMay":4568,"ĠMil":4569,"Ġamazed":4570,"Ġconce":4571,"Ġconceit":4572,"Ġconstant":4573,"ember":4574,"Help":4575,"Ġlovely":4576,"Ġswell":4577,"ĠST":4578,"ĠBe":4579,"ĠBer":4580,"Ġunless":4581,"Ġworn":4582,"Ġworthi":4583,"Ġjew":4584,"Ġmuster":4585,"Ġprovo":4586,"ĠPray":4587,"Ġruth":4588,"ĠAd":4589,"ĠApollo":4590,"Ġdisper":4591,"Ġabhor":4592,"Ġroar":4593,"Ġrogue":4594,"Ġtells":4595,"Ġwhereof":4596,"Ġwarlike":4597,"Ġhasty":4598,"Ġfears":4599,"Ġgreatest":4600,"oldier":4601,"Ġparticular":4602,"Ġadver":4603,"Ġcommitted":4604,"Ġclam":4605,"ĠDo":4606,"Ġperj":4607,"Ġperforce":4608,"Ġwrought":4609,"liament":4610,"Ġnorth":4611,"Ġpress":4612,"Ġrap":4613,"Ġraise":4614,"ĠFarewell":4615,"Ġbegun":4616,"forth":4617,"ĠJack":4618,"Ġconsider":4619,"Ġpeers":4620,"love":4621,"Ġwitch":4622,"Ġaccused":4623,"Ġkindly":4624,"Ġcompan":4625,"Ġsmiles":4626,"Ġcounty":4627,"Ġfinds":4628,"Stri":4629,"Ġbraw":4630,"Ġcharged":4631,"Ġpassion":4632,"Clarence":4633,"Ġholds":4634,"GREEN":4635,"Ġstreets":4636,"Ġbuild":4637,"Ġsoundly":4638,"Ġserves":4639,"Ġboots":4640,"Ġadvice":4641,"Ġcurrent":4642,"Ġrevenged":4643,"Ġassured":4644,"Ġsends":4645,"Ġgiving":4646,"Ġwinds":4647,"Ġhanged":4648,"Ġdarest":4649,"Ġintell":4650,"Ġsupposed":4651,"Ġafford":4652,"ALONS":4653,"Whither":4654,"Ġhardly":4655,"Ġprofit":4656,"Ġparliament":4657,"Ġrecord":4658,"Ġveins":4659,"Ġwaste":4660,"Ġstopp":4661,"Until":4662,"Ġpieces":4663,"Ġwait":4664,"Ġgarland":4665,"Ġgrieve":4666,"Ġsky":4667,"Ġforbear":4668,"ĠPomfret":4669,"Ġdirect":4670,"Ġgroans":4671,"Ġthrice":4672,"Ġestate":4673,"erns":4674,"TYRR":4675,"Ġoppos":4676,"Ġdestroy":4677,"About":4678,"Ġurged":4679,"Ġaffections":4680,"Ġfamous":4681,"Ġhaply":4682,"DORSET":4683,"Supp":4684,"Ġlusty":4685,"Ġelder":4686,"Ġstudy":4687,"Ġcounterfeit":4688,"Gentlemen":4689,"Ġarrived":4690,"Ġbehalf":4691,"ĠMarshal":4692,"Ġavoid":4693,"Ġimprisonment":4694,"untsman":4695,"Ġrascal":4696,"Ġtreacherous":4697,"Ġconduct":4698,"Ġprotector":4699,"Ġspecial":4700,"Ġsanctuary":4701,"Ġperpetual":4702,"Ġgrievous":4703,"AEdile":4704,"Ġvirgin":4705,"Ġjourney":4706,"DINAND":4707,"FERDINAND":4708,"atcliff":4709,"ĠConspir":4710,"ALONSO":4711,"TYRREL":4712,";--":4713,"Acc":4714,"Bring":4715,"Coriol":4716,"Keep":4717,"Leave":4718,"Makes":4719,"Vols":4720,"af":4721,"cure":4722,"des":4723,"dig":4724,"eat":4725,"erer":4726,"fess":4727,"fellow":4728,"faced":4729,"grim":4730,"groom":4731,"ib":4732,"iving":4733,"ienn":4734,"lanch":4735,"master":4736,"mory":4737,"maid":4738,"nal":4739,"sha":4740,"ser":4741,"some":4742,"ties":4743,"upt":4744,"vior":4745,"wear":4746,"xeter":4747,"zz":4748,"Ġz":4749,"Ġing":4750,"ĠThen":4751,"Ġtask":4752,"Ġach":4753,"Ġapt":4754,"Ġaunt":4755,"Ġsy":4756,"Ġsal":4757,"Ġsire":4758,"Ġmult":4759,"Ġmaintain":4760,"Ġwing":4761,"Ġwide":4762,"Ġwhip":4763,"Ġwaking":4764,"reen":4765,"Ġbade":4766,"isbury":4767,"Ġfi":4768,"Ġfood":4769,"Ġfrow":4770,"Ġfun":4771,"Ġfeet":4772,"Ġfires":4773,"Ġfancy":4774,"erity":4775,"erby":4776,"itation":4777,"onci":4778,"Ġdow":4779,"Ġdim":4780,"Ġdri":4781,"Ġdying":4782,"Ġcher":4783,"Ġcaught":4784,"Ġcere":4785,"esar":4786,"essel":4787,"enant":4788,"Ġnail":4789,"Ġlin":4790,"Ġyond":4791,"Ġyoke":4792,"Ġthird":4793,"Ġhor":4794,"Ġhie":4795,"Ġpi":4796,"Ġpot":4797,"Ġpound":4798,"Ġpurse":4799,"Ġpier":4800,"vet":4801,"ative":4802,"sell":4803,"Ġinqu":4804,"etite":4805,"eder":4806,"utenant":4807,"Ġmelt":4808,"Ġmelanch":4809,"Ġfors":4810,"Ġforced":4811,"Ġforfeit":4812,"ourse":4813,"ourth":4814,"Ġevent":4815,"adv":4816,"aded":4817,"rick":4818,"Ġsting":4819,"Ġstro":4820,"Ġstout":4821,"Ġstret":4822,"Ġstroke":4823,"Ġreck":4824,"rac":4825,"ales":4826,"alisbury":4827,"Ġsore":4828,"Ġsooth":4829,"Ġdeceit":4830,"roll":4831,"ested":4832,"earer":4833,"amb":4834,"ams":4835,"aming":4836,"Ġsees":4837,"Ġalliance":4838,"Ġsue":4839,"ruction":4840,"ellion":4841,"Ġsple":4842,"ilence":4843,"Ġknaves":4844,"Ġvessel":4845,"ulate":4846,"arts":4847,"nty":4848,"ĠExeter":4849,"icy":4850,"Ġconfe":4851,"Ġblunt":4852,"ĠGive":4853,"ares":4854,"ĠLe":4855,"Ġsaying":4856,"ĠSoldier":4857,"Ġunjust":4858,"Ġunhappy":4859,"ignty":4860,"LIS":4861,"Ġgraves":4862,"ĠWell":4863,"Ġenforce":4864,"deem":4865,"ĠAll":4866,"ĠAway":4867,"irect":4868,"harge":4869,"Ġoffended":4870,"Ġdissem":4871,"Ġdisgrace":4872,"Ġalack":4873,"Ġalike":4874,"Ġalthough":4875,"Ġabide":4876,"Ġaboard":4877,"Noble":4878,"Ġrose":4879,"Ġexchange":4880,"Soft":4881,"ages":4882,"Ġdesires":4883,"Ġdescend":4884,"Ġslaves":4885,"Ġflood":4886,"Ġflatt":4887,"Ġtwain":4888,"ĠTitus":4889,"Ġbetray":4890,"Ġbetimes":4891,"Ġnewly":4892,"Ġparting":4893,"Ġpartly":4894,"Ġcalled":4895,"Ġcommons":4896,"Ġcommission":4897,"Ġstanding":4898,"Ġclim":4899,"ĠDe":4900,"ĠDorset":4901,"ĠDerby":4902,"ullus":4903,"Ġwrink":4904,"Ġbearing":4905,"aints":4906,"Ġrare":4907,"thee":4908,"ĠFroth":4909,"Ġappeal":4910,"Ġappetite":4911,"Ġcontempt":4912,"Ġwhisper":4913,"Ġimage":4914,"ĠMarian":4915,"forced":4916,"Ġrust":4917,"Ġruled":4918,"Ġhousehold":4919,"Ġrestra":4920,"ercy":4921,"Ġsets":4922,"clam":4923,"osing":4924,"Ġresist":4925,"Ġtrick":4926,"Ġputs":4927,"Ġpowerful":4928,"Ġchase":4929,"Ġcharac":4930,"Ġsmell":4931,"Ġtreasure":4932,"Ġbrace":4933,"iety":4934,"Ġmistrust":4935,"Ġnative":4936,"Ġboys":4937,"Ġweeps":4938,"Ġpatricians":4939,"Ġbelow":4940,"Lords":4941,"Ġfalsehood":4942,"Ġsovereignty":4943,"ouchs":4944,"Ġassure":4945,"Ġsecure":4946,"Twere":4947,"Ġsometimes":4948,"Ġoaths":4949,"Ġmerit":4950,"upon":4951,"Ġfaithful":4952,"Ġdefence":4953,"Ġaffli":4954,"Ġsurely":4955,"should":4956,"Ġsilent":4957,"Ġinstruments":4958,"Cannot":4959,"Ġbeholding":4960,"Ġreconci":4961,"Ġago":4962,"Ġagree":4963,"Ġcorre":4964,"Ġsingle":4965,"Ġbreathed":4966,"Ġforgive":4967,"Ġweakness":4968,"Ġprett":4969,"Ġsickness":4970,"Ġregal":4971,"Ġregard":4972,"Ġmouths":4973,"Ġbooks":4974,"Ġbarren":4975,"Ġbeasts":4976,"Ġtrumpet":4977,"eeming":4978,"Ġpitch":4979,"Ġshield":4980,"Ġunkind":4981,"Ġtempest":4982,"Ġsuspect":4983,"Ġobedient":4984,"Ġreverence":4985,"Ġapparent":4986,"Ġentertainment":4987,"ĠAnti":4988,"Ġdetermined":4989,"Ġhelm":4990,"Ġgently":4991,"Ġholp":4992,"Ġfairest":4993,"Ġtremble":4994,"shire":4995,"Ġstabb":4996,"Ġtyranny":4997,"Ġlength":4998,"Ġpilgrim":4999,"ĠSicilia":5000,"Ġequal":5001,"Ġfashion":5002,"Ġdignity":5003,"Ġcomplex":5004,"Ġcircumst":5005,"yrrel":5006,"Ġaccording":5007,"Ġimpossible":5008,"Ġrejo":5009,"ĠRosaline":5010,"ĠMayor":5011,"ĠMilan":5012,"Volsce":5013,"ienna":5014,"Ġfroward":5015,"Ġmelancholy":5016,"Ġconference":5017,".--":5018,"AD":5019,"Cry":5020,"Cond":5021,"CLE":5022,"Down":5023,"Draw":5024,"Each":5025,"Fl":5026,"FRO":5027,"Fair":5028,"Hail":5029,"IL":5030,"IT":5031,"Im":5032,"Kn":5033,"King":5034,"Lay":5035,"Lie":5036,"Lady":5037,"Many":5038,"OMEN":5039,"PH":5040,"Qu":5041,"Ri":5042,"Sm":5043,"Son":5044,"Somet":5045,"Tush":5046,"UGH":5047,"Warwick":5048,"Ye":5049,"acc":5050,"action":5051,"bod":5052,"bation":5053,"cra":5054,"cary":5055,"cceed":5056,"eb":5057,"eve":5058,"fa":5059,"fold":5060,"foot":5061,"give":5062,"iver":5063,"iam":5064,"kind":5065,"long":5066,"look":5067,"mong":5068,"ns":5069,"nes":5070,"new":5071,"rs":5072,"rat":5073,"rough":5074,"say":5075,"sues":5076,"than":5077,"tic":5078,"teen":5079,"tles":5080,"uries":5081,"war":5082,"weal":5083,"xe":5084,"Ġtim":5085,"Ġtres":5086,"Ġtall":5087,"Ġtakes":5088,"Ġtarry":5089,"Ġtaunt":5090,"here":5091,"Ġaxe":5092,"oubt":5093,"Ġsalt":5094,"Ġsnow":5095,"Ġmir":5096,"Ġmood":5097,"Ġmess":5098,"Ġmirth":5099,"inct":5100,"Ġwid":5101,"Ġwest":5102,"Ġwake":5103,"Ġwink":5104,"hand":5105,"Ġbir":5106,"Ġbuck":5107,"ories":5108,"ering":5109,"erves":5110,"iter":5111,"itable":5112,"onation":5113,"Ġdiffe":5114,"Ġcost":5115,"Ġchall":5116,"Ġciv":5117,"Ġnap":5118,"Ġlent":5119,"Ġline":5120,"Ġlap":5121,"Ġyes":5122,"Ġthir":5123,"Ġthick":5124,"Ġthread":5125,"Ġhorn":5126,"Ġoak":5127,"Ġope":5128,"Ġtoad":5129,"Ġtoil":5130,"Ġtooth":5131,"Ġpee":5132,"Ġpause":5133,"ĠIta":5134,"othes":5135,"stable":5136,"stery":5137,"aning":5138,"omach":5139,"Ġgru":5140,"Ġgaze":5141,"Ġmystery":5142,"Ġinfection":5143,"Ġmemory":5144,"imble":5145,"illy":5146,"illing":5147,"herit":5148,"Ġste":5149,"Ġstick":5150,"Ġstumble":5151,"asp":5152,"ases":5153,"Ġrece":5154,"Ġreap":5155,"Ġredeem":5156,"Ġlift":5157,"Ġliken":5158,"alse":5159,"Ġdeb":5160,"Ġdeck":5161,"Ġdecl":5162,"Ġsham":5163,"ushy":5164,"ushes":5165,"Ġsell":5166,"Ġseiz":5167,"Ġseldom":5168,"Ġsepul":5169,"Through":5170,"Ġsuper":5171,"Ġsuitor":5172,"Ġsucceed":5173,"thing":5174,"Ġlover":5175,"Ġlovest":5176,"Ġspl":5177,"Ġspy":5178,"Ġfact":5179,"Ġfawn":5180,"Ġnegle":5181,"Ġknot":5182,"Ġvar":5183,"Ġvill":5184,"Ġvol":5185,"Ġshri":5186,"ulf":5187,"seless":5188,"artius":5189,"Ġmanif":5190,"Ġmanage":5191,"ĠMin":5192,"ical":5193,"icles":5194,"ĠLau":5195,"ĠLartius":5196,"Ġhated":5197,"LOUGH":5198,"ersu":5199,"Ġswain":5200,"Ġbran":5201,"pping":5202,"ĠSalisbury":5203,"Ġunwill":5204,"ĠHis":5205,"ĠHeaven":5206,"ĠVen":5207,"ĠVienna":5208,"Whether":5209,"Ġjot":5210,"cies":5211,"Ġshoulder":5212,"ĠPerd":5213,"ĠWIL":5214,"Ġdeaths":5215,"Ġheartily":5216,"Ġwholesome":5217,"Ġmarks":5218,"Ġoffic":5219,"Ġdisple":5220,"Ġdisgu":5221,"Ġabused":5222,"Ġexerc":5223,"Ġdescent":5224,"Ġripe":5225,"Ġride":5226,"ased":5227,"Ġleague":5228,"Ġslip":5229,"Ġwarri":5230,"ĠTar":5231,"ĠTell":5232,"ĠTyrrel":5233,"Ġbred":5234,"Ġheavenly":5235,"Ġclothes":5236,"Ġsweeter":5237,"Ġperhaps":5238,"Ġscold":5239,"Ġscandal":5240,"Ġrain":5241,"Ġrail":5242,"Ġraised":5243,"Ġappointed":5244,"Ġwhit":5245,"Ġremorse":5246,"Ġremove":5247,"Ġremoved":5248,"ĠLords":5249,"Ġbegan":5250,"Ġrepose":5251,"Ġharsh":5252,"Ġkeeper":5253,"Ġaccident":5254,"Ġaccursed":5255,"Ġyounger":5256,"Ġyoungest":5257,"Ġprick":5258,"Ġdearly":5259,"Ġsubtle":5260,"RIAN":5261,"Ġrights":5262,"fortune":5263,"Ġminds":5264,"Ġcoff":5265,"Ġdevotion":5266,"Ġmischance":5267,"Ġmeeting":5268,"Ġafternoon":5269,"Ġcareless":5270,"Uncle":5271,"Ġgriefs":5272,"Anon":5273,"Ġhuman":5274,"Ġcounc":5275,"Ġgrat":5276,"Ġretire":5277,"Ġserved":5278,"Ġadventure":5279,"Ġcurt":5280,"Ġcountrymen":5281,"Ġvirtues":5282,"Ġwindows":5283,"itten":5284,"Ġcraves":5285,"Ġcraft":5286,"Ġbeauteous":5287,"Ġstranger":5288,"Ġyielded":5289,"Ġsupply":5290,"Ġcommonweal":5291,"Ġmonstrous":5292,"Ġmonument":5293,"Didst":5294,"soever":5295,"Ġgrowing":5296,"Ġheirs":5297,"Ġvisage":5298,"Ġpoints":5299,"Ġstronger":5300,"Ġtrusty":5301,"Ġinstruction":5302,"Ġinfant":5303,"Ġforeign":5304,"Ġincen":5305,"Ġfeeling":5306,"Ġburst":5307,"Ġplainly":5308,"Ġabsolute":5309,"Ġfourteen":5310,"Ġselfsame":5311,"Ġfrowns":5312,"Ġdirection":5313,"Ġredress":5314,"Ġsatisfy":5315,"Ġservants":5316,"ollow":5317,"Ġblem":5318,"Ġbridegroom":5319,"Ġbabes":5320,"Ġgallant":5321,"Ġrebellion":5322,"Ġwriting":5323,"Ġfierce":5324,"Ġshadows":5325,"Ġpleasing":5326,"Ġmodest":5327,"Ġmodesty":5328,"Ġobject":5329,"Ġforswear":5330,"Ġuncles":5331,"Ġrefuse":5332,"Among":5333,"banished":5334,"Ġbigger":5335,"Ġfeather":5336,"Ġdetermine":5337,"Betw":5338,"Better":5339,"Ġchaste":5340,"otted":5341,"Ġfairer":5342,"Ġshrewd":5343,"Ġdismal":5344,"Ġtrembling":5345,"Ġacquaint":5346,"Ġprophet":5347,"Ġedge":5348,"Ġeagle":5349,"Ġshroud":5350,"Ġsubstit":5351,"othecary":5352,"Ġsteeds":5353,"Ġiron":5354,"Ġtorture":5355,"Ġrenowned":5356,"Ġdearest":5357,"Return":5358,"Remember":5359,"Ġwondrous":5360,"Ġballad":5361,"Ġpenitent":5362,"Ġpolicy":5363,"Ġrepeal":5364,"Ġadversaries":5365,"Ġpurchase":5366,"Commend":5367,"Ġprivilege":5368,"Ġrevolt":5369,"Ġsullen":5370,"Ġconceal":5371,"ĠConspirator":5372,"Coriolanus":5373,"Ġdowry":5374,"Ġpierce":5375,"Ġstrokes":5376,"Ġflatterer":5377,"ĠMariana":5378,"ouchsafe":5379,"ADRIAN":5380,"CLEOMEN":5381,"FROTH":5382,"Ġtrespass":5383,"Ġcivil":5384,"Ġthirty":5385,"ĠItaly":5386,"Ġsepulch":5387,"LOUGHBY":5388,"ĠPerdita":5389,"ĠWILLOUGHBY":5390,"Ġexercise":5391,"CLEOMENES":5392,"AM":5393,"Aw":5394,"BAR":5395,"Courage":5396,"Dare":5397,"Find":5398,"Get":5399,"Men":5400,"Mist":5401,"Making":5402,"Methought":5403,"NARD":5404,"Oh":5405,"Pur":5406,"Petruchio":5407,"Que":5408,"Rather":5409,"RUT":5410,"Se":5411,"Sound":5412,"Tranio":5413,"UR":5414,"Villain":5415,"Wit":5416,"ax":5417,"br":5418,"bble":5419,"boy":5420,"car":5421,"cest":5422,"cue":5423,"cence":5424,"done":5425,"ders":5426,"duke":5427,"ext":5428,"from":5429,"gy":5430,"got":5431,"ghan":5432,"great":5433,"gentle":5434,"iar":5435,"ips":5436,"mas":5437,"made":5438,"nken":5439,"nicious":5440,"oon":5441,"oes":5442,"off":5443,"phy":5444,"pret":5445,"pardon":5446,"rity":5447,"ratch":5448,"sire":5449,"scal":5450,"tend":5451,"ug":5452,"vive":5453,"vied":5454,"ĠAs":5455,"Ġtou":5456,"Ġtro":5457,"Ġtig":5458,"Ġtail":5459,"Ġale":5460,"Ġages":5461,"Ġsn":5462,"Ġmain":5463,"Ġmil":5464,"Ġmethought":5465,"inate":5466,"Ġward":5467,"Ġwakes":5468,"Ġbon":5469,"Ġbore":5470,"Ġbag":5471,"Ġbrown":5472,"Ġborrow":5473,"Ġbott":5474,"ision":5475,"orough":5476,"Ġfish":5477,"Ġfret":5478,"Ġfix":5479,"Ġfreed":5480,"ital":5481,"itiff":5482,"onest":5483,"Ġdate":5484,"Ġdower":5485,"Ġcrow":5486,"esu":5487,"enge":5488,"Ġnet":5489,"Ġnest":5490,"Ġnice":5491,"Ġnumb":5492,"Ġnupt":5493,"Ġlur":5494,"Ġlance":5495,"Ġlower":5496,"Ġluck":5497,"Ġyon":5498,"Ġthin":5499,"Ġthie":5500,"Ġthirst":5501,"Ġthumb":5502,"Ġhom":5503,"Ġhind":5504,"Ġhig":5505,"Ġhire":5506,"Ġhoney":5507,"Ġtoy":5508,"Ġtomorrow":5509,"Ġped":5510,"Ġpear":5511,"Ġpath":5512,"Ġpage":5513,"hath":5514,"ĠIt":5515,"Ġheat":5516,"Ġheels":5517,"owl":5518,"ingers":5519,"Ġgid":5520,"atri":5521,"atest":5522,"Ġbere":5523,"Ġbefall":5524,"sey":5525,"Ġink":5526,"cels":5527,"Ġhare":5528,"Ġhaught":5529,"Ġhabit":5530,"ayed":5531,"Ġnoted":5532,"chief":5533,"keley":5534,"Ġweal":5535,"Ġwealth":5536,"oops":5537,"hern":5538,"Ġwithdraw":5539,"rif":5540,"rich":5541,"rible":5542,"Ġstale":5543,"Ġstern":5544,"Ġstomach":5545,"order":5546,"INE":5547,"rage":5548,"Ġlivery":5549,"Ġliking":5550,"urg":5551,"urrey":5552,"Ġdeaf":5553,"Ġshare":5554,"Ġshapes":5555,"Ġdove":5556,"Ġdogs":5557,"Ġdozen":5558,"Ġwills":5559,"ushing":5560,"Ġsuits":5561,"Ġhers":5562,"Ġanointed":5563,"ardel":5564,"Ġspit":5565,"Ġspect":5566,"Ġshallow":5567,"ĠCounty":5568,"Ġneat":5569,"Ġvent":5570,"Ġshook":5571,"Ġshines":5572,"Ġupright":5573,"Ġgoods":5574,"Ġprime":5575,"Ġamiss":5576,"icate":5577,"icio":5578,"Ġconceive":5579,"iege":5580,"Ġblast":5581,"ĠGree":5582,"emper":5583,"Ġgodd":5584,"aughan":5585,"Ġsirs":5586,"ola":5587,"olved":5588,"ĠLicio":5589,"Ġthereby":5590,"ept":5591,"eping":5592,"Ġswore":5593,"Ġsweat":5594,"Ġorn":5595,"ĠSc":5596,"ĠSp":5597,"ĠSee":5598,"ĠShore":5599,"ĠOff":5600,"ĠBr":5601,"ĠBy":5602,"Ġarrest":5603,"Ġlets":5604,"Ġunst":5605,"Ġunse":5606,"Ġunfe":5607,"Ġworm":5608,"ĠVal":5609,"aker":5610,"Ġhop":5611,"Ġlikely":5612,"Ġproclam":5613,"ĠPlease":5614,"ĠPETER":5615,"Ġsav":5616,"Ġmadness":5617,"umbling":5618,"Ġplaces":5619,"iced":5620,"ĠWilt":5621,"Ġeng":5622,"unate":5623,"Ġrans":5624,"Ġtrunk":5625,"Ġsomewhat":5626,"harged":5627,"orney":5628,"Ġoffices":5629,"Ġdisgra":5630,"Ġalms":5631,"Ġabuse":5632,"Ġexam":5633,"Ġtelling":5634,"Ġlooked":5635,"Ġthinking":5636,"Ġwhereon":5637,"agues":5638,"Whereto":5639,"Ġflow":5640,"Ġflint":5641,"Ġflourish":5642,"Ġfearing":5643,"bert":5644,"Ġbreed":5645,"Ġgreatness":5646,"Ġparted":5647,"Ġpernicious":5648,"Ġtroop":5649,"Ġtroops":5650,"lied":5651,"Ġscatter":5652,"ainty":5653,"ables":5654,"ĠFare":5655,"Ġappea":5656,"Ġgraced":5657,"Ġbegu":5658,"Ġbeget":5659,"rank":5660,"Ġchildish":5661,"Ġreply":5662,"Ġconsort":5663,"loves":5664,"ercing":5665,"cheth":5666,"Ġtrif":5667,"ontes":5668,"Ġprice":5669,"Ġsubd":5670,"Ġbacks":5671,"twill":5672,"Ġforthwith":5673,"Ġbank":5674,"Ġcheap":5675,"Ġcharm":5676,"Ġlaws":5677,"Ġconfirm":5678,"Ġcoll":5679,"Ġlightning":5680,"Does":5681,"Ġroyalty":5682,"ĠAnne":5683,"Ġbesides":5684,"Ġhappily":5685,"Ġsorrows":5686,"Ġcareful":5687,"Ġlesser":5688,"Ġstrive":5689,"Ġsleeping":5690,"Ġdrag":5691,"Ġserp":5692,"Ġboast":5693,"pense":5694,"Ġwanting":5695,"Ġbreathing":5696,"Ġdiscourse":5697,"Ġsenseless":5698,"Ġbeaut":5699,"Ġhangs":5700,"Ġdepend":5701,"hamed":5702,"Ġgrew":5703,"Ġspoil":5704,"Ġdrunken":5705,"Ġaffords":5706,"Ġmetal":5707,"Ġsooner":5708,"IDAM":5709,"Ġsights":5710,"Ġmonster":5711,"Ġmonarch":5712,"acles":5713,"Ġsadness":5714,"Ġsuffic":5715,"Ġcarried":5716,"Ġexecute":5717,"Ġexecuted":5718,"Ġminute":5719,"Ġvel":5720,"Ġcoronation":5721,"Ġpraises":5722,"Ġwaves":5723,"Ġburnt":5724,"Ġliberal":5725,"Ġburns":5726,"Ġburning":5727,"Ġproport":5728,"Ġblessing":5729,"Ġbleeding":5730,"Ġestim":5731,"Ġbitterly":5732,"mbles":5733,"speak":5734,"Ġlimit":5735,"Ġlimbs":5736,"Ġsacrif":5737,"Ġsuccession":5738,"Ġactions":5739,"Ġcaps":5740,"Ġviolence":5741,"Ġtriumphant":5742,"Ġmidnight":5743,"Ġrebels":5744,"Ġpossession":5745,"Play":5746,"Ġtorch":5747,"Ġcaitiff":5748,"Ġpitiful":5749,"Ġinjury":5750,"Ġurge":5751,"Ġexecutioner":5752,"March":5753,"Marcius":5754,"Ġmeddle":5755,"Ġoccup":5756,"Ġnobility":5757,"Ġchurchyard":5758,"Ġignorance":5759,"Ġsaints":5760,"headed":5761,"ĠCaesar":5762,"Ġrank":5763,"Ġguests":5764,"ĠWilliam":5765,"Ġhungry":5766,"Ġunfold":5767,"Ġmonths":5768,"Ġextremity":5769,"Ġinclined":5770,"Ġcovert":5771,"Ġjoints":5772,"Ġprevented":5773,"Ġtyrann":5774,"Ġlengthen":5775,"Ġwager":5776,"Ġnecessity":5777,"Ġsubstance":5778,"Ġescape":5779,"Ġsenses":5780,"Ġstatue":5781,"Ġconjure":5782,"Ġbands":5783,"Ġweapon":5784,"Ġsteps":5785,"Ġangel":5786,"Ġtransport":5787,"Ġthreatening":5788,"Ġwolf":5789,"Ġcensure":5790,"ribunes":5791,"ARCHIDAM":5792,"ĠDido":5793,"ĠElbow":5794,"Ġapprehend":5795,"Ġimmortal":5796,"Ġtapster":5797,"Ġmoral":5798,"ĠBerkeley":5799,"Ġjewel":5800,"Ġruthless":5801,"Ġdispersed":5802,"Ġclamour":5803,"Ġrapier":5804,"Ġcompanion":5805,"Strike":5806,"Ġopposite":5807,"Ġzeal":5808,"Ġcherish":5809,"Ġstretch":5810,"ambio":5811,"Ġspleen":5812,"Ġcharacter":5813,"Ġprettiest":5814,"Ġrejoice":5815,"Ġbirds":5816,"Ġchallenge":5817,"Ġpeevish":5818,"Ġlikeness":5819,"ĠLaurence":5820,"Ġofficers":5821,"Ġwarriors":5822,"Ġcommonwealth":5823,"Ġsepulchre":5824,"BARNARD":5825,"Queen":5826,"RUTLAND":5827,"scalus":5828,"Ġbottom":5829,"Ġnuptial":5830,"Ġgiddy":5831,"ĠOfficer":5832,"ĠWiltshire":5833,"ARCHIDAMUS":5834,"BARNARDINE":5835,"ATER":5836,"Add":5837,"Bre":5838,"Bra":5839,"BAN":5840,"CRO":5841,"Content":5842,"Ever":5843,"Eng":5844,"Else":5845,"EPH":5846,"Full":5847,"False":5848,"Follow":5849,"GO":5850,"Ga":5851,"Gard":5852,"Gentleman":5853,"Hic":5854,"Henry":5855,"Hortensio":5856,"Lu":5857,"Live":5858,"Mis":5859,"MOR":5860,"Much":5861,"Name":5862,"Old":5863,"Patience":5864,"Persu":5865,"Saw":5866,"Six":5867,"SIR":5868,"TON":5869,"Toward":5870,"TMOR":5871,"Virt":5872,"Wr":5873,"WES":5874,"Woe":5875,"Women":5876,"WATER":5877,"Yield":5878,"ZWATER":5879,"ald":5880,"aven":5881,"back":5882,"cor":5883,"cus":5884,"call":5885,"cap":5886,"cont":5887,"cons":5888,"ded":5889,"dal":5890,"fri":5891,"gged":5892,"horse":5893,"iban":5894,"light":5895,"may":5896,"nant":5897,"pray":5898,"ront":5899,"sen":5900,"vided":5901,"wd":5902,"wing":5903,"water":5904,"zed":5905,"Ġice":5906,"Ġought":5907,"ĠThy":5908,"Ġeter":5909,"ĠQueen":5910,"Ġtard":5911,"Ġtack":5912,"Ġtree":5913,"Ġtied":5914,"Ġtired":5915,"Ġtakest":5916,"Ġah":5917,"Ġaud":5918,"Ġaged":5919,"oured":5920,"Ġsed":5921,"Ġsess":5922,"Ġsau":5923,"Ġsings":5924,"Ġsought":5925,"Ġsides":5926,"Ġsurp":5927,"Ġsilly":5928,"Ġmat":5929,"Ġmour":5930,"Ġmould":5931,"iners":5932,"Ġwet":5933,"Ġwave":5934,"Ġwaked":5935,"reet":5936,"reant":5937,"habit":5938,"Ġbay":5939,"Ġbill":5940,"Ġbent":5941,"Ġbru":5942,"Ġbol":5943,"Ġbalm":5944,"ishes":5945,"isement":5946,"orth":5947,"oriz":5948,"Ġfin":5949,"Ġfant":5950,"Ġfray":5951,"Ġfever":5952,"Ġfelt":5953,"Ġfardel":5954,"erily":5955,"itch":5956,"oned":5957,"onus":5958,"onstant":5959,"Ġcat":5960,"Ġcent":5961,"Ġcook":5962,"envol":5963,"Ġnar":5964,"Ġlour":5965,"Ġlun":5966,"arm":5967,"Ġomit":5968,"Ġtops":5969,"Ġpor":5970,"Ġpill":5971,"Ġpent":5972,"Ġphi":5973,"Ġpick":5974,"Ġpace":5975,"Ġpaint":5976,"Ġpaid":5977,"Ġpush":5978,"Ġpalm":5979,"Ġpomp":5980,"ĠIn":5981,"Ġhera":5982,"Ġheight":5983,"omes":5984,"Ġgn":5985,"Ġgap":5986,"Ġgains":5987,"Ġgoose":5988,"athe":5989,"athed":5990,"Ġbeams":5991,"sec":5992,"seem":5993,"Ġinv":5994,"Ġhail":5995,"iring":5996,"ednes":5997,"uts":5998,"utch":5999,"Ġmew":6000,"Ġmemb":6001,"Ġissu":6002,"Ġforty":6003,"Ġweek":6004,"ently":6005,"riel":6006,"Ġstead":6007,"Ġhist":6008,"Ġrend":6009,"Ġrear":6010,"Ġreach":6011,"Ġrevel":6012,"raid":6013,"Ġlions":6014,"Ġlikes":6015,"Ġlivest":6016,"urgh":6017,"urtis":6018,"alter":6019,"Ġsoil":6020,"Ġsoci":6021,"Ġaspect":6022,"Ġashamed":6023,"Ġdem":6024,"Ġdepose":6025,"rog":6026,"ARLIS":6027,"hire":6028,"verty":6029,"Ġbutt":6030,"Ġsevere":6031,"Ġseated":6032,"Thine":6033,"Things":6034,"Ġalleg":6035,"Ġherd":6036,"three":6037,"Ġanch":6038,"tering":6039,"Ġload":6040,"Ġlock":6041,"Ġlovers":6042,"ellows":6043,"Ġspread":6044,"Ġourself":6045,"Ġfavours":6046,"ilful":6047,"iliar":6048,"ĠCurtis":6049,"ĠCARLIS":6050,"ĠRatcliff":6051,"ĠRaven":6052,"Ġvast":6053,"ORGE":6054,"Ġshru":6055,"Ġshrift":6056,"arted":6057,"ĠMistress":6058,"ĠEm":6059,"ĠEly":6060,"ĠELY":6061,"ĠEscalus":6062,"Ġamain":6063,"Ġamends":6064,"Ġambit":6065,"Ġamorous":6066,"Ġconsequ":6067,"iece":6068,"ĠGreen":6069,"Ġshel":6070,"Ġgoss":6071,"arers":6072,"olks":6073,"ĠLook":6074,"Ġknowing":6075,"resh":6076,"Ġswears":6077,"Ġbrat":6078,"ĠShall":6079,"ĠSurrey":6080,"ĠSCRO":6081,"ĠOur":6082,"ĠBushy":6083,"ĠBurg":6084,"Ġarray":6085,"Ġune":6086,"Ġunm":6087,"Ġunre":6088,"igent":6089,"igonus":6090,"ĠHim":6091,"ĠHark":6092,"ĠHuntsman":6093,"ĠVaughan":6094,"elsh":6095,"eliver":6096,"LIBAN":6097,"Ġgrain":6098,"Ġhoar":6099,"Ġlikewise":6100,"Ġproved":6101,"Ġprocess":6102,"Ġprodig":6103,"umed":6104,"ĠWas":6105,"ĠWould":6106,"ĠWelsh":6107,"isting":6108,"Ġenc":6109,"uns":6110,"Ġrate":6111,"Ġrouse":6112,"Ġpoverty":6113,"Ġspeaking":6114,"Ġoutrage":6115,"ELAND":6116,"ickle":6117,"CALIBAN":6118,"Withdraw":6119,"igned":6120,"Ġmars":6121,"Ġmarvel":6122,"Ġmarvell":6123,"Ġdisin":6124,"Ġdisease":6125,"Ġabund":6126,"Ġrobb":6127,"Ġexcept":6128,"agot":6129,"aged":6130,"Ġdesc":6131,"Ġriches":6132,"Whereof":6133,"Ġslight":6134,"Ġslipp":6135,"Ġflat":6136,"Ġbetide":6137,"Ġbread":6138,"Behold":6139,"Ġcouple":6140,"Ġparties":6141,"Ġpartner":6142,"idered":6143,"Ġclock":6144,"Ġprefer":6145,"Ġsweetly":6146,"ĠDian":6147,"ulls":6148,"Ġwritten":6149,"Ġscratch":6150,"Ġpresume":6151,"Ġpreserve":6152,"Ġnights":6153,"Ġworldly":6154,"perience":6155,"Ġrack":6156,"Ġraven":6157,"them":6158,"ably":6159,"ĠFIT":6160,"Ġdownright":6161,"Ġcontro":6162,"BAGO":6163,"ranch":6164,"Ġimper":6165,"Ġreputation":6166,"Ġafraid":6167,"Ġmightst":6168,"Ġstays":6169,"Ġrue":6170,"Ġleg":6171,"Ġlect":6172,"Ġlewd":6173,"loso":6174,"Ġrestore":6175,"Ġentrance":6176,"Ġtricks":6177,"Ġmoves":6178,"Ġbestow":6179,"Ġaccom":6180,"Ġended":6181,"Ġpurge":6182,"Ġpurple":6183,"Ġputting":6184,"Prove":6185,"Proceed":6186,"Proclaim":6187,"Ġsmil":6188,"Ġsmother":6189,"Ġtrain":6190,"Ġtravell":6191,"Ġbidding":6192,"Ġdrew":6193,"Ġearthly":6194,"Ġcouldst":6195,"Ġtren":6196,"Ġhopeful":6197,"GEORGE":6198,"Ġbrains":6199,"Ġcheque":6200,"Ġbridal":6201,"Ġconfound":6202,"being":6203,"Ġcop":6204,"Ġcoat":6205,"Ġmisfortune":6206,"Ġlanded":6207,"blood":6208,"Ġfalcon":6209,"Ġfalls":6210,"Ġbusy":6211,"Another":6212,"Ġstrict":6213,"Ġcounsell":6214,"Ġcourtier":6215,"Ġcourteous":6216,"Ġbuzz":6217,"Ġattain":6218,"Ġattorney":6219,"erest":6220,"Ġsounds":6221,"Ġsounded":6222,"Ġretired":6223,"Ġadvised":6224,"Ġrevenges":6225,"Ġstraw":6226,"Although":6227,"Ġprompt":6228,"Ġcram":6229,"Ġcontents":6230,"Ġvillains":6231,"Ġinteg":6232,"Ġkisses":6233,"aptain":6234,"Ġyields":6235,"upid":6236,"Ġwinters":6237,"Ġlambs":6238,"Ġbeats":6239,"Ġbeaten":6240,"acy":6241,"undy":6242,"unday":6243,"ventry":6244,"Ġchosen":6245,"Hadst":6246,"Ġentreaties":6247,"Ġdevilish":6248,"Ġboldly":6249,"Ġwooing":6250,"Ġinfer":6251,"Becomes":6252,"guard":6253,"Ġreadiness":6254,"Ġprofane":6255,"Ġdivor":6256,"Ġyouthful":6257,"Comes":6258,"Comfort":6259,"Ġterm":6260,"Ġsuitors":6261,"Ġstops":6262,"Ġcloudy":6263,"Ġmusicians":6264,"Ġdroop":6265,"Ġwax":6266,"Ġgrieves":6267,"Ġgrieved":6268,"chers":6269,"Ġskill":6270,"Ġsignal":6271,"Ġsignify":6272,"Ġcheerly":6273,"Ġprophes":6274,"Ġextreme":6275,"Ġtroubl":6276,"Ġsatisfaction":6277,"Ġdarkness":6278,"Ġexped":6279,"Ġflattering":6280,"Ġembra":6281,"Ġesteem":6282,"Ġbowels":6283,"Ġfrail":6284,"Ġhurl":6285,"Ġtowns":6286,"Ġsuddenly":6287,"spurgh":6288,"Ġcowardly":6289,"Ġlamentable":6290,"Ġowes":6291,"Ġeaten":6292,"Ġkinsmen":6293,"Ġmiddle":6294,"Ġdestruction":6295,"Ġdeparture":6296,"Plantagenet":6297,"Whiles":6298,"Ġfondly":6299,"Ġusurping":6300,"Above":6301,"ossess":6302,"Ġmildness":6303,"Ġinsol":6304,"Ġgladly":6305,"mediate":6306,"Ġapace":6307,"Ġships":6308,"Ġshop":6309,"Ġshoes":6310,"Ġobsequ":6311,"Ġtreasons":6312,"Ġcondemned":6313,"Ġtroubled":6314,"Ġlists":6315,"Ġstorms":6316,"Ġtemples":6317,"Ġmutinous":6318,"Ġpetty":6319,"Ġconquest":6320,"Ġgrandam":6321,"Ġgrandsire":6322,"Ġeldest":6323,"ĠAntigonus":6324,"Disp":6325,"EXTON":6326,"Ġbastards":6327,"Ġhelps":6328,"Ġamongst":6329,"Ġprovide":6330,"Ġgreeting":6331,"Ġministers":6332,"Neither":6333,"where":6334,"Ġconclud":6335,"Ġconclude":6336,"Ġdismiss":6337,"Officer":6338,"Ġimagine":6339,"Ġacquainted":6340,"Ġgifts":6341,"Ġghostly":6342,"Ġbehavior":6343,"Ġeleven":6344,"Ġrobes":6345,"Ġdesigns":6346,"Ġtempted":6347,"Ġheavier":6348,"Perhaps":6349,"Ġerrand":6350,"Ġwandering":6351,"Ġdetest":6352,"Ġweapons":6353,"Ġvanity":6354,"Ġaccusation":6355,"Shalt":6356,"Ġfrost":6357,"Ġpersuade":6358,"Ġdiscontented":6359,"Appear":6360,"Ġtestim":6361,"Ġhazard":6362,"ĠCaliban":6363,"ĠBlunt":6364,"Ġkeys":6365,"Ġinstantly":6366,"iveness":6367,"Ġfigure":6368,"Ġfurnish":6369,"Ġparents":6370,"Ġrecompense":6371,"Ġnobleness":6372,"ĠCoventry":6373,"ĠSTEPH":6374,"Ġprovoked":6375,"Ġintelligence":6376,"Ġfiend":6377,"Ġceremon":6378,"advised":6379,"Ġreckon":6380,"ĠLeontes":6381,"Ġreconcile":6382,"Ġunkindness":6383,"Ġpilgrimage":6384,"Ġcomplexion":6385,"Ġseized":6386,"Ġneglect":6387,"Ġvarlet":6388,"ĠMinola":6389,"ĠVenice":6390,"Ġblemish":6391,"Ġfreedom":6392,"Ġthieves":6393,"Ġgoddess":6394,"Ġproclamation":6395,"Ġsavage":6396,"Ġransom":6397,"Ġexample":6398,"Ġvelvet":6399,"Ġproportion":6400,"Ġtyrannous":6401,"Gaoler":6402,"Gardener":6403,"Lucentio":6404,"Towards":6405,"TMORELAND":6406,"WESTMORELAND":6407,"envolio":6408,"Ġnarrow":6409,"Ġphiloso":6410,"Ġherald":6411,"ednesday":6412,"Ġmembers":6413,"Ġallegiance":6414,"ĠCARLISLE":6415,"ĠRavenspurgh":6416,"Ġambitious":6417,"ĠSCROOP":6418,"ĠBurgundy":6419,"ĠFITZWATER":6420,"BAGOT":6421,"Ġintegrity":6422,"ĠSTEPHEN":6423,"Ġphilosophy":6424,"Ac":6425,"Af":6426,"Bound":6427,"Ca":6428,"Cont":6429,"Camillo":6430,"Catesby":6431,"Dep":6432,"Div":6433,"Fore":6434,"Five":6435,"Fall":6436,"Foul":6437,"Fetch":6438,"Gra":6439,"Gives":6440,"Grace":6441,"Hie":6442,"Harry":6443,"Hang":6444,"Justice":6445,"Kind":6446,"Lies":6447,"Lead":6448,"Mur":6449,"Part":6450,"Peter":6451,"Rel":6452,"Sit":6453,"Send":6454,"Ten":6455,"Tra":6456,"Talk":6457,"Touch":6458,"Teach":6459,"Truly":6460,"Vouchsafe":6461,"Verily":6462,"Wert":6463,"Zounds":6464,"av":6465,"ape":6466,"aving":6467,"bes":6468,"bour":6469,"bell":6470,"board":6471,"cat":6472,"cock":6473,"down":6474,"ech":6475,"eves":6476,"gic":6477,"gues":6478,"hors":6479,"ipt":6480,"join":6481,"kest":6482,"know":6483,"lor":6484,"len":6485,"low":6486,"lain":6487,"last":6488,"lace":6489,"lock":6490,"liness":6491,"longs":6492,"met":6493,"miss":6494,"mistress":6495,"nib":6496,"ob":6497,"oble":6498,"open":6499,"post":6500,"pite":6501,"pular":6502,"pothecary":6503,"ris":6504,"rish":6505,"roof":6506,"sent":6507,"tin":6508,"ted":6509,"tell":6510,"tong":6511,"tied":6512,"trees":6513,"uge":6514,"uild":6515,"ually":6516,"vir":6517,"wh":6518,"wer":6519,"was":6520,"work":6521,"women":6522,"ycor":6523,"ĠFirst":6524,"Ġtrow":6525,"Ġtie":6526,"Ġtorn":6527,"Ġtaking":6528,"heard":6529,"Ġafe":6530,"Ġsow":6531,"Ġsand":6532,"Ġsong":6533,"Ġsixt":6534,"Ġmom":6535,"Ġmas":6536,"Ġmouse":6537,"Ġmates":6538,"Ġmurde":6539,"Ġmask":6540,"inu":6541,"inal":6542,"inies":6543,"inces":6544,"Ġwore":6545,"Ġwipe":6546,"had":6547,"hage":6548,"Ġbot":6549,"Ġbul":6550,"Ġbows":6551,"Ġbail":6552,"Ġbounty":6553,"Ġfre":6554,"Ġfan":6555,"Ġfif":6556,"Ġfil":6557,"Ġfrant":6558,"Ġfount":6559,"Ġfift":6560,"Ġfingers":6561,"Ġfrank":6562,"Ġfolks":6563,"onio":6564,"Ġdot":6565,"Ġdine":6566,"Ġdried":6567,"Ġdined":6568,"Ġdash":6569,"Ġdiest":6570,"Ġdrift":6571,"Ġcord":6572,"Ġcro":6573,"Ġcab":6574,"Ġcool":6575,"Ġcrows":6576,"Ġcords":6577,"ening":6578,"ened":6579,"enches":6580,"Ġnort":6581,"Ġnigh":6582,"Ġnamed":6583,"Ġnimble":6584,"Ġlute":6585,"Ġlads":6586,"Ġlying":6587,"Ġlinger":6588,"Ġthw":6589,"Ġthrown":6590,"Ġhill":6591,"Ġpow":6592,"Ġpour":6593,"Ġpest":6594,"Ġpant":6595,"Ġpup":6596,"Ġpict":6597,"Ġheel":6598,"Ġheinous":6599,"otland":6600,"Ġgust":6601,"Ġgather":6602,"Ġgaunt":6603,"Ġbeef":6604,"see":6605,"Ġinward":6606,"Ġhag":6607,"Ġhaunt":6608,"lect":6609,"aying":6610,"etition":6611,"Ġmeed":6612,"Ġmeal":6613,"iments":6614,"Ġnotice":6615,"Ġforso":6616,"Ġug":6617,"Ġwears":6618,"Ġeight":6619,"Ġeff":6620,"advent":6621,"ril":6622,"rial":6623,"Ġstink":6624,"Ġstag":6625,"Ġsteep":6626,"Ġstiff":6627,"Ġkites":6628,"iders":6629,"asant":6630,"Ġrein":6631,"Ġrevive":6632,"rament":6633,"Ġlick":6634,"Ġlief":6635,"urb":6636,"uring":6637,"alks":6638,"Ġashes":6639,"Ġassem":6640,"Ġdeer":6641,"Ġdece":6642,"Ġdeform":6643,"roach":6644,"Ġshade":6645,"Ġdole":6646,"amy":6647,"amity":6648,"aments":6649,"Ġnod":6650,"Ġnoon":6651,"ushi":6652,"anders":6653,"Ġsearch":6654,"Throw":6655,"Ġann":6656,"Ġancest":6657,"Ġlodge":6658,"Ġloathed":6659,"ella":6660,"Ġspark":6661,"Ġspider":6662,"Ġspurs":6663,"ĠCambio":6664,"ĠCupid":6665,"Ġvul":6666,"Ġvass":6667,"Ġvouch":6668,"Ġvial":6669,"Ġventure":6670,"ctor":6671,"ousins":6672,"Ġwhatsoever":6673,"Ġshot":6674,"Ġshown":6675,"ules":6676,"arthage":6677,"Ġprate":6678,"Ġprint":6679,"Ġprating":6680,"Ġmanhood":6681,"ĠEven":6682,"Ġamaz":6683,"icle":6684,"ication":6685,"ived":6686,"ively":6687,"Ġblot":6688,"Ġblue":6689,"Ġblown":6690,"Ġbliss":6691,"Ġblaze":6692,"Ġblushing":6693,"embroke":6694,"Ġtheme":6695,"ĠLove":6696,"Ġthereto":6697,"Ġcanop":6698,"eptune":6699,"Ġherein":6700,"Ġswoon":6701,"Ġbranch":6702,"Ġorator":6703,"ĠSly":6704,"ĠSunday":6705,"ĠSycor":6706,"ĠBagot":6707,"ĠBenvolio":6708,"Ġarise":6709,"Ġunlike":6710,"Ġunruly":6711,"Ġworms":6712,"Ġworser":6713,"ĠHave":6714,"Ġmustard":6715,"Ġgraces":6716,"Ġseeks":6717,"Ġlikeli":6718,"Ġshoulders":6719,"ĠPoor":6720,"Ġsack":6721,"Ġsaved":6722,"Ġplan":6723,"peian":6724,"ĠWest":6725,"ĠWednesday":6726,"Ġenforced":6727,"Ġenrich":6728,"unis":6729,"uned":6730,"fulness":6731,"Ġrhe":6732,"Ġranc":6733,"Ġrush":6734,"Ġroof":6735,"Ġrushes":6736,"Ġpock":6737,"Ġpopular":6738,"death":6739,"ption":6740,"Ġoffences":6741,"Ġdiso":6742,"Ġalar":6743,"Ġaloud":6744,"Ġalso":6745,"ABRA":6746,"Ġbrotherhood":6747,"Ġfox":6748,"Ġroses":6749,"Ġroaring":6750,"Ġexceed":6751,"Ġrig":6752,"Ġleap":6753,"Ġleaving":6754,"Ġslily":6755,"Ġflock":6756,"ĠTime":6757,"ĠTew":6758,"ĠTroy":6759,"ĠTullus":6760,"ĠTribunes":6761,"ffic":6762,"ĠKent":6763,"Ġcommends":6764,"Ġcler":6765,"Ġsweetest":6766,"Ġplebe":6767,"Ġperfection":6768,"Ġwring":6769,"awful":6770,"Ġtrim":6771,"Ġotherwise":6772,"Ġmeaner":6773,"lier":6774,"Ġscore":6775,"Ġnighting":6776,"Ġrace":6777,"Thank":6778,"these":6779,"ĠFourth":6780,"Ġdownfall":6781,"together":6782,"Ġappears":6783,"Ġcontri":6784,"GREY":6785,"Ġwhist":6786,"Northumberland":6787,"Ġmothers":6788,"Ġeverlast":6789,"ksbury":6790,"ĠJup":6791,"Ġrum":6792,"Ġpeer":6793,"Ġlevel":6794,"Ġharl":6795,"Ġharvest":6796,"Ġharbour":6797,"Ġrests":6798,"Ġsettled":6799,"attern":6800,"oses":6801,"Ġmoe":6802,"Ġmoving":6803,"Ġmoiety":6804,"Ġbestri":6805,"Ġhenceforth":6806,"Ġaccomp":6807,"Ġfaced":6808,"ulting":6809,"Ġendured":6810,"Ġpursue":6811,"Ġcompare":6812,"Ġcompound":6813,"Ġchamp":6814,"Ġdearth":6815,"twould":6816,"Ġtrees":6817,"Ġhomely":6818,"Ġbrand":6819,"isterous":6820,"Ġcharges":6821,"Ġchances":6822,"Ġchanging":6823,"Ġconfidence":6824,"Ġconfeder":6825,"Ġcoast":6826,"Ġcozen":6827,"Ġimpeach":6828,"Ġlights":6829,"Ġroyalties":6830,"Ġbeside":6831,"Ġfully":6832,"Ġdevour":6833,"Ġwronged":6834,"Ġmischief":6835,"Ġlasting":6836,"blance":6837,"Ġafterward":6838,"Ġthousands":6839,"Ġholding":6840,"Ġpatron":6841,"Ġfallen":6842,"Ġfalling":6843,"Ġstrife":6844,"ivant":6845,"Ġhumility":6846,"Ġbelong":6847,"Ġbelieved":6848,"Ġtalking":6849,"Ġgrim":6850,"Ġgrass":6851,"Ġdram":6852,"Ġserious":6853,"Ġboisterous":6854,"Ġadvoc":6855,"Ġmerchant":6856,"Ġrevenue":6857,"Ġdoubtful":6858,"Ġdancing":6859,"Ġpersons":6860,"Ġdischarge":6861,"Attend":6862,"Ġcommands":6863,"Ġwindow":6864,"ittany":6865,"Ġcrab":6866,"Ġhangman":6867,"Ġproudest":6868,"Twixt":6869,"Ġintents":6870,"Ġyielding":6871,"Ġbreaks":6872,"Ġmerri":6873,"Ġtemple":6874,"Ġrequire":6875,"Ġdefy":6876,"Ġlately":6877,"Ġtenderness":6878,"Ġsadly":6879,"Ġchose":6880,"Ġgrowth":6881,"Ġasking":6882,"Ġreported":6883,"shine":6884,"Ġwatery":6885,"ĠMontagues":6886,"Ġbattles":6887,"Ġcrying":6888,"Ġlearning":6889,"Ġlearned":6890,"Ġentreaty":6891,"Ġdevils":6892,"Ġmurders":6893,"Ġsilk":6894,"Ġboldness":6895,"Ġruns":6896,"Ġrevengeful":6897,"Happ":6898,"Happy":6899,"voc":6900,"Ġspeedy":6901,"Ġquarter":6902,"Ġconfessor":6903,"ĠNed":6904,"ĠNeptune":6905,"Ġforehead":6906,"Ġterr":6907,"Ġminutes":6908,"Ġrecreant":6909,"Ġdelicate":6910,"Ġdespised":6911,"Ġbosoms":6912,"Ġharmony":6913,"Ġguiltless":6914,"Ġattended":6915,"Ġmurderous":6916,"Ġveil":6917,"Ġdistra":6918,"Ġdistress":6919,"Ġacts":6920,"Ġwonderful":6921,"Ġsingular":6922,"Ġmusician":6923,"Ġclosed":6924,"Ġwaits":6925,"Ġburden":6926,"Ġsuffering":6927,"Ġbreasts":6928,"Ġwedded":6929,"Ġdukes":6930,"shearing":6931,"Ġwisely":6932,"Ġfeasts":6933,"eshrew":6934,"Ġgroom":6935,"Ġredempt":6936,"Ġbeggars":6937,"Read":6938,"Ready":6939,"Swear":6940,"ĠFortune":6941,"Ġcrim":6942,"Ġcrook":6943,"Ġcrush":6944,"standing":6945,"Ġinterrupt":6946,"Ġundo":6947,"Ġevils":6948,"Ġsumm":6949,"ĠVolscians":6950,"ĠVolscian":6951,"Ġvisitation":6952,"Ġbowl":6953,"Ġbaby":6954,"Ġframed":6955,"Ġsafely":6956,"Ġsafeguard":6957,"Ġknocks":6958,"Ġsacrament":6959,"Ġleaden":6960,"Ġlamentation":6961,"ĠIsabella":6962,"Ġignoble":6963,"Ġclean":6964,"Ġoppression":6965,"Ġapproved":6966,"Ġapprobation":6967,"Ġcomplaint":6968,"Ġdrinking":6969,"Ġsurfeit":6970,"Ġmidst":6971,"Ġmidwife":6972,"Ġdestiny":6973,"Ġsmallest":6974,"Confess":6975,"Ġeasily":6976,"Stands":6977,"Ġdamnable":6978,"Ġutmost":6979,"Ġmildly":6980,"Ġcauses":6981,"Ġpuiss":6982,"Ġpitied":6983,"Ġinjustice":6984,"Ġinsinu":6985,"Ġproceedings":6986,"Ġapart":6987,"Ġmedic":6988,"Ġmodel":6989,"Ġfamiliar":6990,"Ġreigns":6991,"Ġprosperity":6992,"Ġlenity":6993,"Ġlowly":6994,"angling":6995,"Ġbending":6996,"Ġslanderous":6997,"ĠCapulets":6998,"Ġmountain":6999,"Ġunpro":7000,"Ġunworthy":7001,"Ġprovided":7002,"Ġplants":7003,"Ġneighbours":7004,"Ġglasses":7005,"Ġextremes":7006,"when":7007,"Ġconclusion":7008,"Ġimagination":7009,"rateful":7010,"Ġunlook":7011,"Ġunluck":7012,"ĠAlban":7013,"govern":7014,"Ġavoided":7015,"Ġeager":7016,"Ġloathsome":7017,"Ġloyalty":7018,"Ġaims":7019,"Ġsensible":7020,"Ġcrept":7021,"Ġpilot":7022,"Ġstatutes":7023,"Ġchiefest":7024,"cannot":7025,"Ġcalamity":7026,"Ġpinch":7027,"Ġinfected":7028,"Ġstocks":7029,"Ġdearer":7030,"Ġangels":7031,"Ġlodged":7032,"Ġlodging":7033,"Ġpursuit":7034,"Ġconqueror":7035,"Prepare":7036,"Ġtutor":7037,"Ġfleet":7038,"Ġfrozen":7039,"ARCHBISHOP":7040,"Ġadvanced":7041,"Ġcorruption":7042,"Ġmagist":7043,"Ġconcerns":7044,"Ġcloak":7045,"Ġwhoreson":7046,"Ġcompassion":7047,"bric":7048,"Ġstolen":7049,"Ġsprings":7050,"Ġswelling":7051,"Ġabhorr":7052,"Ġadverse":7053,"Ġperjured":7054,"Suppose":7055,"Ġmultitude":7056,"Ġnails":7057,"Ġlinea":7058,"Ġpiercing":7059,"Ġinquire":7060,"Ġclimate":7061,"Ġwrinkled":7062,"Ġwhispering":7063,"Ġcorrection":7064,"ĠAntium":7065,"Ġcircumstance":7066,"Lieutenant":7067,"Sometime":7068,"craft":7069,"favour":7070,"Ġtaunts":7071,"Ġmoody":7072,"Ġsteward":7073,"Ġmanifest":7074,"Ġbranches":7075,"Ġunwilling":7076,"ĠTarpeian":7077,"Ġincensed":7078,"Ġsubstitute":7079,"Ġflatterers":7080,"Mistake":7081,"Ġtiger":7082,"Ġmilk":7083,"Ġnumbers":7084,"Ġhinder":7085,"Ġpearl":7086,"Ġbereft":7087,"Ġornaments":7088,"ĠBrittany":7089,"Ġunseen":7090,"Ġdisgraced":7091,"Ġtrifles":7092,"Ġserpent":7093,"Ġsufficient":7094,"Ġestimation":7095,"Ġoccupation":7096,"Break":7097,"Virtue":7098,"Ġeternal":7099,"Ġtardy":7100,"Ġsurpr":7101,"Ġfantast":7102,"Ġlunatic":7103,"Ġhistory":7104,"Ġconsequence":7105,"Ġmarshal":7106,"Ġmarvellous":7107,"Ġprophesy":7108,"Ġceremonious":7109,"Murder":7110,"Ġafeard":7111,"Ġsixteen":7112,"Ġmoment":7113,"Ġmurdered":7114,"Ġfrantic":7115,"Ġfifteen":7116,"Ġcabin":7117,"Ġnorthern":7118,"Ġforsooth":7119,"adventure":7120,"ĠSycorax":7121,"Ġlikelihood":7122,"ABRAHAM":7123,"ĠTewksbury":7124,"ĠJupiter":7125,"Ġadvocate":7126,"Ġredemption":7127,"Again":7128,"Aff":7129,"AGE":7130,"Aumerle":7131,"Apollo":7132,"Apothecary":7133,"Ban":7134,"BON":7135,"Bold":7136,"Bless":7137,"Cle":7138,"Cast":7139,"Cold":7140,"Carry":7141,"Cursed":7142,"Den":7143,"Dest":7144,"Def":7145,"DION":7146,"Direct":7147,"Er":7148,"End":7149,"Every":7150,"EMI":7151,"Fit":7152,"Fill":7153,"Fourth":7154,"Gain":7155,"Grand":7156,"Groom":7157,"Ho":7158,"Har":7159,"High":7160,"Huntsman":7161,"Imp":7162,"Just":7163,"Join":7164,"Keeper":7165,"Left":7166,"Music":7167,"NATH":7168,"Open":7169,"Obey":7170,"Pres":7171,"PAGE":7172,"Ren":7173,"Run":7174,"Ratcliff":7175,"Sus":7176,"Sic":7177,"Trust":7178,"Ur":7179,"Wife":7180,"Worse":7181,"ais":7182,"aches":7183,"avish":7184,"bon":7185,"bot":7186,"bat":7187,"bid":7188,"bur":7189,"best":7190,"bel":7191,"bles":7192,"bearer":7193,"co":7194,"cis":7195,"cour":7196,"cri":7197,"core":7198,"cast":7199,"count":7200,"cured":7201,"cals":7202,"dra":7203,"dist":7204,"daughter":7205,"door":7206,"duce":7207,"eks":7208,"fly":7209,"fend":7210,"found":7211,"franch":7212,"gea":7213,"gage":7214,"grown":7215,"gled":7216,"greed":7217,"hur":7218,"honour":7219,"iqu":7220,"ivers":7221,"jud":7222,"kn":7223,"kens":7224,"lm":7225,"lu":7226,"leness":7227,"mar":7228,"mal":7229,"make":7230,"mind":7231,"much":7232,"mission":7233,"nut":7234,"name":7235,"never":7236,"nothing":7237,"oa":7238,"og":7239,"overy":7240,"occ":7241,"ops":7242,"opher":7243,"ph":7244,"po":7245,"pre":7246,"por":7247,"put":7248,"phan":7249,"pers":7250,"pres":7251,"pire":7252,"ples":7253,"point":7254,"picious":7255,"sion":7256,"spe":7257,"sick":7258,"sign":7259,"such":7260,"side":7261,"somet":7262,"scape":7263,"ton":7264,"ule":7265,"uish":7266,"uced":7267,"ukes":7268,"vil":7269,"vance":7270,"wit":7271,"who":7272,"why":7273,"weet":7274,"were":7275,"witted":7276,"yp":7277,"yet":7278,"ĠU":7279,"Ġire":7280,"ĠNo":7281,"ĠThus":7282,"Ġton":7283,"Ġtur":7284,"Ġtea":7285,"Ġtink":7286,"Ġtreat":7287,"Ġtents":7288,"Ġtainted":7289,"Ġtailor":7290,"Ġtamed":7291,"Ġtumble":7292,"Ġack":7293,"Ġafore":7294,"Ġape":7295,"ouches":7296,"Ġsith":7297,"Ġsine":7298,"Ġsitting":7299,"Ġsiege":7300,"Ġmast":7301,"Ġmant":7302,"Ġmuff":7303,"Ġmiles":7304,"iner":7305,"Ġwester":7306,"Ġwilful":7307,"reth":7308,"report":7309,"has":7310,"haeth":7311,"Ġbought":7312,"Ġbishop":7313,"isc":7314,"isher":7315,"isome":7316,"oricles":7317,"Ġfet":7318,"Ġfem":7319,"Ġfits":7320,"Ġfulf":7321,"erous":7322,"lly":7323,"lling":7324,"itan":7325,"once":7326,"Ġder":7327,"Ġdom":7328,"Ġded":7329,"Ġdil":7330,"Ġdame":7331,"Ġdiet":7332,"Ġdrows":7333,"Ġdumb":7334,"Ġcand":7335,"Ġcave":7336,"Ġcuck":7337,"Ġcrest":7338,"Ġcrew":7339,"Ġcurious":7340,"Ġcushi":7341,"Ġcousins":7342,"Ġnon":7343,"Ġnaught":7344,"Ġnourish":7345,"Ġlink":7346,"Ġlace":7347,"Ġloose":7348,"Ġlung":7349,"Ġlends":7350,"Ġlatest":7351,"Ġyare":7352,"Ġyester":7353,"Ġthrees":7354,"arison":7355,"Ġhood":7356,"Ġom":7357,"Ġobt":7358,"Ġtoe":7359,"Ġtoken":7360,"Ġtoads":7361,"Ġtower":7362,"Ġpine":7363,"Ġpate":7364,"Ġpuff":7365,"Ġpedant":7366,"Ġpounds":7367,"Ġpattern":7368,"Ġheal":7369,"Ġheigh":7370,"stra":7371,"stone":7372,"strong":7373,"strel":7374,"owick":7375,"ank":7376,"omenes":7377,"Ġgam":7378,"Ġgame":7379,"Ġgaz":7380,"Ġgrum":7381,"Ġgeld":7382,"Ġgulf":7383,"Ġgloves":7384,"ato":7385,"atient":7386,"Ġbeet":7387,"Ġbeads":7388,"seth":7389,"Ġinve":7390,"Ġinch":7391,"Ġinvent":7392,"Ġinherit":7393,"cel":7394,"ceives":7395,"ceiving":7396,"Ġhaw":7397,"Ġhall":7398,"Ġhalt":7399,"ediment":7400,"Ġmellow":7401,"imo":7402,"ims":7403,"Ġnotes":7404,"Ġnotwith":7405,"chool":7406,"child":7407,"Ġforces":7408,"key":7409,"Ġweed":7410,"illed":7411,"Ġelo":7412,"Ġebb":7413,"herited":7414,"entious":7415,"ado":7416,"adem":7417,"adise":7418,"rion":7419,"riam":7420,"rief":7421,"rieve":7422,"Ġstu":7423,"Ġstem":7424,"Ġstark":7425,"Ġstaff":7426,"ghts":7427,"idd":7428,"iding":7429,"asy":7430,"asing":7431,"asures":7432,"Ġrent":7433,"Ġrender":7434,"Ġresem":7435,"raken":7436,"rails":7437,"Ġliar":7438,"Ġliqu":7439,"urvy":7440,"Ġsolic":7441,"Ġashore":7442,"Ġdeceive":7443,"Ġdefect":7444,"aining":7445,"verse":7446,"verdone":7447,"estiv":7448,"eap":7449,"earest":7450,"Ġdoct":7451,"Ġdoves":7452,"Ġdoors":7453,"Ġnoses":7454,"Ġbutter":7455,"using":7456,"usiness":7457,"ifth":7458,"Ġsear":7459,"Ġsequ":7460,"Ġallay":7461,"Ġallies":7462,"Ġsued":7463,"Ġsung":7464,"Ġsunder":7465,"Ġsugg":7466,"Ġsugar":7467,"Ġherbs":7468,"thw":7469,"throw":7470,"thrift":7471,"Ġansw":7472,"Ġantic":7473,"terate":7474,"Ġloins":7475,"Ġlocks":7476,"Ġspar":7477,"Ġsped":7478,"Ġspilt":7479,"Ġspices":7480,"Ġspiders":7481,"Ġfaction":7482,"ĠCle":7483,"ĠCaptain":7484,"ĠCarthage":7485,"Ġnegl":7486,"hoeb":7487,"Ġknit":7488,"ANIEL":7489,"ĠRo":7490,"Ġvi":7491,"Ġvine":7492,"Ġvig":7493,"cts":7494,"Ġshout":7495,"Ġshower":7496,"ulous":7497,"antime":7498,"quet":7499,"athom":7500,"Whate":7501,"ĠMadam":7502,"Ġwhet":7503,"Ġwheel":7504,"Ġamend":7505,"ending":7506,"icial":7507,"bled":7508,"iel":7509,"ivered":7510,"Ġblister":7511,"Ġblade":7512,"venient":7513,"ĠGentle":7514,"Forth":7515,"Forbear":7516,"Forgive":7517,"Forbid":7518,"olar":7519,"olve":7520,"olour":7521,"ĠLam":7522,"ĠLod":7523,"ĠLeave":7524,"Ġhatch":7525,"Ġcanker":7526,"feel":7527,"feits":7528,"ressed":7529,"ately":7530,"Ġbrass":7531,"ppet":7532,"pped":7533,"Ġorphan":7534,"allel":7535,"ĠShe":7536,"ĠSweet":7537,"Ġusure":7538,"ĠBes":7539,"ĠBraken":7540,"Ġarch":7541,"Ġargu":7542,"Ġarbit":7543,"Ġunple":7544,"Ġunrest":7545,"Ġworshi":7546,"ĠHa":7547,"ĠHear":7548,"ĠHerc":7549,"elting":7550,"Ġquake":7551,"Ġquaint":7552,"Ġjade":7553,"Ġjoc":7554,"Ġmusty":7555,"Ġgraft":7556,"Ġhole":7557,"cip":7558,"cially":7559,"Ġprog":7560,"Ġprocure":7561,"ĠPercy":7562,"ĠPatri":7563,"ĠPembroke":7564,"ĠPhaeth":7565,"ĠPhoeb":7566,"Ġsap":7567,"Ġmadly":7568,"Ġmadest":7569,"Ġmadman":7570,"ums":7571,"umes":7572,"umps":7573,"uments":7574,"umny":7575,"Ġplate":7576,"Ġplaints":7577,"people":7578,"ĠWh":7579,"ĠWelcome":7580,"ĠWales":7581,"ĠWalter":7582,"owned":7583,"Ġrats":7584,"Ġrites":7585,"Ġrising":7586,"Ġpox":7587,"Ġpoll":7588,"ptory":7589,"ĠAh":7590,"ĠAm":7591,"ĠAr":7592,"Ġtruer":7593,"Thoughts":7594,"Ġmarr":7595,"Ġmarble":7596,"Ġmariners":7597,"Ins":7598,"Infer":7599,"acks":7600,"Ġdisl":7601,"Ġdisorder":7602,"Ġaloof":7603,"Ġaltogether":7604,"Ġheap":7605,"oyal":7606,"Ġhears":7607,"echer":7608,"eches":7609,"Ġabst":7610,"Ġabod":7611,"Ġfold":7612,"Ġfoil":7613,"Ġearl":7614,"Ġearldom":7615,"Ġrode":7616,"Ġrocks":7617,"Ġexclaim":7618,"Ġexact":7619,"Ġexperience":7620,"Ġlooker":7621,"agine":7622,"ervation":7623,"aved":7624,"Ġripen":7625,"Ġridd":7626,"Ġrivers":7627,"tised":7628,"Wherefore":7629,"Ġslack":7630,"Ġwarn":7631,"Ġflame":7632,"ĠTur":7633,"ĠTunis":7634,"ffer":7635,"Ġbreeding":7636,"izab":7637,"sses":7638,"Ġclap":7639,"Ġprec":7640,"Ġpreced":7641,"Ġprerog":7642,"Ġsweets":7643,"Ġprays":7644,"Ġnobleman":7645,"Ġpledge":7646,"ĠDoricles":7647,"Ġperd":7648,"Ġperf":7649,"Ġpermit":7650,"Ġwrangling":7651,"aws":7652,"Ġtrades":7653,"Ġwayward":7654,"Ġheadstrong":7655,"lip":7656,"Ġscour":7657,"Ġscru":7658,"Ġscape":7659,"Ġpreserved":7660,"Ġqueens":7661,"Ġchival":7662,"Ġrages":7663,"Ġraging":7664,"Ġraiment":7665,"Ġragged":7666,"their":7667,"abour":7668,"ĠFear":7669,"ĠFran":7670,"Ġapply":7671,"Ġappell":7672,"Ġappoint":7673,"Ġarmed":7674,"Norfolk":7675,"sweet":7676,"Ġbegot":7677,"range":7678,"Ġmale":7679,"Ġimmediate":7680,"Ġlongest":7681,"ĠMarch":7682,"Ġreplied":7683,"Ġrepossess":7684,"Ġrepetition":7685,"Ġfriendship":7686,"Ġafoot":7687,"ĠJer":7688,"ĠJun":7689,"ĠJOHN":7690,"ĠJesu":7691,"Ġconspir":7692,"Ġconsumed":7693,"Ġconsidered":7694,"Ġperem":7695,"Ġlevy":7696,"Ġentrails":7697,"Ġlieutenant":7698,"chelor":7699,"Ġresort":7700,"Ġrescue":7701,"Ġtried":7702,"Ġmoan":7703,"Ġfollies":7704,"Ġprivy":7705,"Thyself":7706,"Ġchaf":7707,"Ġchap":7708,"Ġpeaceful":7709,"Ġelsewhere":7710,"ailing":7711,"asonable":7712,"Ġbackward":7713,"Ġcounted":7714,"Ġladyship":7715,"Ġneedle":7716,"Ġneedless":7717,"Ġtrembles":7718,"Ġhighway":7719,"Stanley":7720,"Ġhusbands":7721,"Ġbanquet":7722,"Ġminded":7723,"Ġbraved":7724,"Ġchest":7725,"Ġbribe":7726,"Ġshowers":7727,"Ġconfer":7728,"Ġconfines":7729,"Ġconfusion":7730,"Ġcoz":7731,"Ġcoal":7732,"Ġcoals":7733,"Ġcaused":7734,"Ġglories":7735,"Ġimpart":7736,"Ġimpud":7737,"Ġimpatience":7738,"Ġimpression":7739,"Ġimpatient":7740,"Ġimpediment":7741,"Ġbodes":7742,"Ġmistaking":7743,"Ġlightly":7744,"Ġlightness":7745,"Ġnatures":7746,"Ġpardons":7747,"Claudio":7748,"Ġbeseem":7749,"Ġhappier":7750,"Ġdevice":7751,"blown":7752,"Ġunderne":7753,"Ġundergo":7754,"Ġkilled":7755,"Ġfollowing":7756,"Ġfarm":7757,"Ġsunshine":7758,"Ġbush":7759,"Any":7760,"Ġstreet":7761,"Ġstream":7762,"Ġturned":7763,"Ġcomforts":7764,"Ġcomfortable":7765,"Ġsleeps":7766,"Ġsleepy":7767,"itories":7768,"Ġwelcomes":7769,"Ġthankful":7770,"Ġbox":7771,"Ġboon":7772,"Ġboat":7773,"Ġfights":7774,"Ġfighting":7775,"holds":7776,"Ġfalsely":7777,"plish":7778,"Ġmerciful":7779,"Ġmatters":7780,"Ġassault":7781,"Ġprisoners":7782,"Ġdangers":7783,"Ġdreamt":7784,"enerate":7785,"Ġstrait":7786,"Ġdischarged":7787,"Ġcommanding":7788,"Ġdared":7789,"Twill":7790,"Twice":7791,"Twenty":7792,"comp":7793,"Ġsisterhood":7794,"Ġfouler":7795,"versy":7796,"Ġdenial":7797,"Ġawry":7798,"Ġmerrim":7799,"Ġsupport":7800,"Ġsuppose":7801,"Ġsuppli":7802,"Ġbeating":7803,"Ġrequires":7804,"Ġrequired":7805,"Ġvalue":7806,"Ġaffright":7807,"Ġwoeful":7808,"Ġtenderly":7809,"Ġreturned":7810,"mph":7811,"mpet":7812,"Ġdeeper":7813,"Ġdeeply":7814,"Ġfootman":7815,"Ġchop":7816,"Ġcoldly":7817,"Ġnursed":7818,"azon":7819,"Ġplucks":7820,"shining":7821,"xton":7822,"Ġairy":7823,"Ġsuffice":7824,"Ġpastime":7825,"Ġfasting":7826,"Ġsilken":7827,"Ġstrongly":7828,"Canst":7829,"Ġpossessed":7830,"voke":7831,"voided":7832,"Ġinfring":7833,"Ġinfirm":7834,"Ġprofan":7835,"Ġprofits":7836,"Ġconfession":7837,"ĠNature":7838,"Ġmocking":7839,"Ġmockery":7840,"Ġforest":7841,"Ġdivided":7842,"Ġdivines":7843,"Ġdivision":7844,"Ġcarries":7845,"Ġposterity":7846,"Ġcounsels":7847,"Command":7848,"Commit":7849,"Ġterrible":7850,"Ġminstrel":7851,"Ġinconstant":7852,"Ġrecover":7853,"Ġresolute":7854,"nowledge":7855,"Ġharmless":7856,"ĠHector":7857,"Ġagreed":7858,"Ġwhipt":7859,"Ġdishon":7860,"Ġdisting":7861,"Ġdisturb":7862,"Ġdistressed":7863,"Ġtribune":7864,"Ġtribute":7865,"Ġdraws":7866,"Ġactor":7867,"Ġstirs":7868,"Ġstirring":7869,"Ġbreathes":7870,"Ġclosely":7871,"Ġforgiveness":7872,"Ġsufferance":7873,"Ġskulls":7874,"Ġsigns":7875,"Ġwisest":7876,"Ġregiment":7877,"Ġpoisonous":7878,"Ġcheerfully":7879,"shepherd":7880,"Ġtax":7881,"Ġdireful":7882,"Ġpays":7883,"Ġsuccor":7884,"Ġblessings":7885,"Ġbleed":7886,"Ġbleeds":7887,"Ġinterchange":7888,"Ġembass":7889,"Ġmalign":7890,"Ġhurried":7891,"Ġchamberlain":7892,"Ġcowardice":7893,"Ġlimits":7894,"Ġscorns":7895,"Ġwitnesses":7896,"Ġbroad":7897,"Ġcreated":7898,"Ġcreatures":7899,"Ġcaparison":7900,"ĠChristopher":7901,"Ġidly":7902,"Ġhideous":7903,"Ġbeastly":7904,"Ġrebel":7905,"Ġrebuke":7906,"Ġscarlet":7907,"Ġsecrets":7908,"Ġfills":7909,"Ġstrumpet":7910,"Ġpuppet":7911,"Ġinjurious":7912,"Ġinjuries":7913,"Ġinsulting":7914,"Ġinnocence":7915,"Ġadmit":7916,"Ġadmir":7917,"Ġadmitted":7918,"Ġfamish":7919,"Ġgovernor":7920,"Enough":7921,"Proud":7922,"Ġscholar":7923,"Ġmutiny":7924,"Ġlustful":7925,"Ġthreats":7926,"Ġindiffe":7927,"Ġindirect":7928,"Ġsolely":7929,"Ġgrandfather":7930,"Ġsafer":7931,"Ġsentenced":7932,"Ġdrunkard":7933,"Belike":7934,"Heart":7935,"Measure":7936,"Meantime":7937,"piring":7938,"Ġmounting":7939,"Ġfeat":7940,"Ġcaptive":7941,"ĠAntonio":7942,"Ġcontrad":7943,"Ġdegrees":7944,"Ġdemands":7945,"Ġremedies":7946,"Ġunderstanding":7947,"Ġgreetings":7948,"Ġtriumphs":7949,"Ġfarthest":7950,"Ġfaintly":7951,"Ġdwells":7952,"Ġthroats":7953,"Ġhunger":7954,"Ġgait":7955,"Ġgaol":7956,"Ġgape":7957,"Ġgaoler":7958,"Ġgentler":7959,"Ġchastity":7960,"Ġchastisement":7961,"Ġmiseries":7962,"Ġextremest":7963,"Ġscarcely":7964,"whelm":7965,"Ġfirmly":7966,"Ġholid":7967,"Ġinclination":7968,"Ġrelig":7969,"Ġunborn":7970,"Ġbootless":7971,"Ġconditions":7972,"Ġschoolmaster":7973,"Ġfruitful":7974,"Ġbald":7975,"Ġbachelor":7976,"Ġfeeding":7977,"Ġstooping":7978,"Ġunlawful":7979,"ĠAlas":7980,"therefore":7981,"Ġimportune":7982,"Ġprophecy":7983,"portion":7984,"Ġdecay":7985,"Ġknightly":7986,"Ġknighthood":7987,"Ġshrink":7988,"Ġroundly":7989,"Ġfrighted":7990,"Ġassistance":7991,"Ġdelights":7992,"Ġutterance":7993,"actors":7994,"Ġcreate":7995,"Ġlouder":7996,"Ġstarve":7997,"Ġjealousies":7998,"Ġrascals":7999,"Ġtreachery":8000,"Ġerror":8001,"Ġcalumny":8002,"Ġphysician":8003,"Ġweighty":8004,"Ġsupreme":8005,"runes":8006,"Ġpursued":8007,"Repent":8008,"Shame":8009,"paration":8010,"Ġwolves":8011,"Ġwonders":8012,"Ġbaseness":8013,"Ġbudge":8014,"Ġdiadem":8015,"Ġbeware":8016,"Ġrewards":8017,"Ġpronounced":8018,"Ġambition":8019,"Ġargos":8020,"ĠFlore":8021,"ĠFloriz":8022,"Ġcracking":8023,"Ġpenitence":8024,"Ġpublicly":8025,"Arm":8026,"Arise":8027,"doing":8028,"scap":8029,"Ġmagic":8030,"Ġhazel":8031,"Ġmerely":8032,"ĠCalais":8033,"ĠElizab":8034,"Ġapprehens":8035,"Ġgreyh":8036,"Ġcholeric":8037,"Consider":8038,"glass":8039,"Ġmillions":8040,"regory":8041,"Ġthorns":8042,"Ġbefal":8043,"Ġbefits":8044,"Ġnobler":8045,"ĠSTANLEY":8046,"Ġworthily":8047,"Ġadvertised":8048,"Ġperjury":8049,"Ġwitchcraft":8050,"Ġbrawl":8051,"Ġbrawling":8052,"Ġachieve":8053,"Ġachieved":8054,"Ġsyll":8055,"Ġwinged":8056,"Ġfunction":8057,"Ġhorror":8058,"Ġforsake":8059,"Ġevents":8060,"Ġdissemble":8061,"Ġclimb":8062,"ĠDeath":8063,"Ġrestraint":8064,"Ġafflict":8065,"ĠAntiates":8066,"Ġcircumstances":8067,"Condemn":8068,"Knock":8069,"Small":8070,"mongst":8071,"Ġtimeless":8072,"Ġwidows":8073,"Ġnapkin":8074,"Ġdebase":8075,"Ġsuperfl":8076,"Ġsplit":8077,"Ġvillany":8078,"Ġvolume":8079,"Ġshriek":8080,"Ġdispleasure":8081,"Ġdisguised":8082,"Ġscolding":8083,"Ġcouncil":8084,"Ġcouncils":8085,"Ġcurtain":8086,"Amongst":8087,"Between":8088,"Betwixt":8089,"Pursu":8090,"Seize":8091,"URREY":8092,"Ġbaggage":8093,"Ġhomage":8094,"Ġhigher":8095,"Ġpedlar":8096,"Ġhaughty":8097,"ĠGreece":8098,"ĠScotland":8099,"ĠSpeak":8100,"Ġunfeigned":8101,"Ġappeared":8102,"Ġconsorted":8103,"Ġbankrupt":8104,"Ġdragon":8105,"Ġtransported":8106,"Evermore":8107,"England":8108,"Ġsaucy":8109,"Ġmourning":8110,"Ġcentre":8111,"Ġissued":8112,"Ġsociety":8113,"Ġanchor":8114,"ĠEmilia":8115,"Ġshelter":8116,"ĠWelshmen":8117,"Ġimperial":8118,"Ġlecture":8119,"Ġrestored":8120,"Ġsmiling":8121,"Ġcounsellor":8122,"Ġinferior":8123,"Ġdivorce":8124,"Ġtroublous":8125,"Ġexpedition":8126,"Ġinsolence":8127,"Dispatch":8128,"Ġconcluded":8129,"Ġtestimony":8130,"Ġreckoning":8131,"Affection":8132,"Touching":8133,"posterous":8134,"Ġsands":8135,"Ġcordial":8136,"Ġpestilence":8137,"Ġpupil":8138,"Ġugly":8139,"Ġvulgar":8140,"Ġvassal":8141,"Ġamazement":8142,"Ġcanopy":8143,"Ġrancour":8144,"Ġpocket":8145,"Ġdisobed":8146,"Ġplebeians":8147,"Ġnightingale":8148,"Ġwhistle":8149,"Ġharlot":8150,"Ġmerrily":8151,"Ġterritories":8152,"Ġpuissant":8153,"Ġmedicine":8154,"BONA":8155,"EMILIA":8156,"Gainst":8157,"Grandam":8158,"Harp":8159,"NATHANIEL":8160,"Urge":8161,"iquity":8162,"Ġtonight":8163,"Ġsinew":8164,"Ġwestern":8165,"Ġfemale":8166,"Ġcuckold":8167,"Ġlungs":8168,"Ġobtain":8169,"Ġnotwithstanding":8170,"Ġeloqu":8171,"Ġsolicit":8172,"estival":8173,"Ġvineyard":8174,"ĠLodowick":8175,"ĠBrakenbury":8176,"ĠHercules":8177,"Ġjocund":8178,"ĠPatrician":8179,"ĠPhaethon":8180,"ĠPhoebus":8181,"Ġprecedent":8182,"Ġprerogative":8183,"ĠFrancis":8184,"Ġperemptory":8185,"Ġunderneath":8186,"Ġmerriment":8187,"Ġindifferent":8188,"ĠFlorizel":8189,"ĠElizabeth":8190,"Ġapprehension":8191,"'!":8192,"'--":8193,"Aufidius":8194,"ALIS":8195,"BL":8196,"Bad":8197,"Bore":8198,"Best":8199,"Breat":8200,"Back":8201,"Bohemia":8202,"Beshrew":8203,"Ch":8204,"Che":8205,"Cut":8206,"Chi":8207,"Care":8208,"CIS":8209,"Citizen":8210,"Charge":8211,"Dou":8212,"Dro":8213,"Die":8214,"Ele":8215,"EAR":8216,"Far":8217,"Fri":8218,"Fly":8219,"Fell":8220,"Fine":8221,"Found":8222,"FRAN":8223,"Fool":8224,"Friar":8225,"Fellow":8226,"Gl":8227,"Gu":8228,"Gold":8229,"Gloucester":8230,"Grumio":8231,"Girl":8232,"Given":8233,"Hard":8234,"Host":8235,"Hap":8236,"HOMAS":8237,"Holy":8238,"Ill":8239,"Jul":8240,"Jesu":8241,"Katharina":8242,"Less":8243,"Last":8244,"Lend":8245,"Little":8246,"Lives":8247,"Man":8248,"Mount":8249,"Mere":8250,"Masters":8251,"Mercy":8252,"Near":8253,"Night":8254,"Nine":8255,"Opp":8256,"Oxford":8257,"Pit":8258,"Perc":8259,"Pale":8260,"Red":8261,"Rest":8262,"Ref":8263,"Sin":8264,"Sen":8265,"Sent":8266,"Sad":8267,"Sel":8268,"Soul":8269,"Sorrow":8270,"Sto":8271,"Sland":8272,"Seal":8273,"Sleep":8274,"Tong":8275,"Time":8276,"Tran":8277,"Takes":8278,"Trem":8279,"Tullus":8280,"UNT":8281,"Went":8282,"Yonder":8283,"ait":8284,"aus":8285,"avery":8286,"aled":8287,"acious":8288,"against":8289,"avoided":8290,"bre":8291,"bro":8292,"ball":8293,"book":8294,"bred":8295,"bject":8296,"bham":8297,"bhors":8298,"business":8299,"cas":8300,"could":8301,"cond":8302,"creat":8303,"corn":8304,"chard":8305,"certain":8306,"cats":8307,"custom":8308,"content":8309,"cued":8310,"cency":8311,"dan":8312,"dent":8313,"dur":8314,"dro":8315,"dish":8316,"dict":8317,"doubt":8318,"deliver":8319,"ele":8320,"every":8321,"eress":8322,"eases":8323,"fan":8324,"fix":8325,"fellows":8326,"gom":8327,"gher":8328,"gone":8329,"gnant":8330,"hill":8331,"hra":8332,"ias":8333,"ige":8334,"iod":8335,"iber":8336,"iable":8337,"iction":8338,"iby":8339,"ky":8340,"lay":8341,"lord":8342,"lous":8343,"live":8344,"lves":8345,"lorn":8346,"lause":8347,"mo":8348,"min":8349,"mast":8350,"mak":8351,"matter":8352,"mony":8353,"net":8354,"none":8355,"nel":8356,"need":8357,"oz":8358,"oft":8359,"oever":8360,"phe":8361,"pse":8362,"pter":8363,"pho":8364,"past":8365,"part":8366,"pence":8367,"poor":8368,"piece":8369,"pril":8370,"poses":8371,"rings":8372,"rates":8373,"roop":8374,"sl":8375,"sir":8376,"sil":8377,"song":8378,"sist":8379,"since":8380,"serv":8381,"sorrow":8382,"sby":8383,"sia":8384,"school":8385,"te":8386,"too":8387,"tree":8388,"true":8389,"tered":8390,"trick":8391,"tsey":8392,"uc":8393,"uing":8394,"uity":8395,"ubs":8396,"ugg":8397,"ueless":8398,"vill":8399,"vion":8400,"vity":8401,"vice":8402,"viol":8403,"wr":8404,"wind":8405,"worn":8406,"ween":8407,"widow":8408,"wench":8409,"warn":8410,"worth":8411,"yally":8412,"ymph":8413,"zwater":8414,"Ġ&":8415,"ĠĠ":8416,"ĠNot":8417,"ĠThese":8418,"Ġtil":8419,"Ġtum":8420,"Ġtire":8421,"Ġtatter":8422,"Ġtides":8423,"Ġtunes":8424,"Ġtales":8425,"Ġteeming":8426,"Ġtumbling":8427,"hen":8428,"hence":8429,"Ġau":8430,"Ġaust":8431,"Ġaery":8432,"Ġaches":8433,"Ġsly":8434,"Ġsurn":8435,"Ġsongs":8436,"Ġmot":8437,"Ġmow":8438,"Ġming":8439,"Ġmart":8440,"Ġmum":8441,"Ġmap":8442,"Ġmass":8443,"Ġmute":8444,"Ġmuse":8445,"inc":8446,"inet":8447,"inance":8448,"inable":8449,"inite":8450,"Ġwra":8451,"Ġware":8452,"Ġwaken":8453,"Ġwaning":8454,"Ġwenches":8455,"Ġwalks":8456,"reef":8457,"repare":8458,"reement":8459,"haw":8460,"hast":8461,"happ":8462,"nders":8463,"Ġbust":8464,"Ġbone":8465,"Ġbau":8466,"Ġbind":8467,"Ġbate":8468,"Ġbide":8469,"Ġbaw":8470,"Ġbier":8471,"Ġbale":8472,"Ġbount":8473,"Ġbench":8474,"Ġbash":8475,"Ġbills":8476,"isk":8477,"isle":8478,"Ġfen":8479,"Ġfed":8480,"Ġfut":8481,"Ġfate":8482,"Ġfence":8483,"Ġfile":8484,"Ġfester":8485,"Ġfitted":8486,"Ġfees":8487,"Ġfitting":8488,"Ġfowl":8489,"Ġfront":8490,"Ġfickle":8491,"Ġfathom":8492,"Ġfestival":8493,"erman":8494,"eria":8495,"erwhelm":8496,"itche":8497,"Ġdun":8498,"Ġdaint":8499,"Ġdastard":8500,"Ġdaring":8501,"Ġduteous":8502,"Ġdainty":8503,"Ġced":8504,"Ġcas":8505,"Ġcard":8506,"Ġcele":8507,"Ġnearer":8508,"Ġnerves":8509,"Ġniece":8510,"Ġnuns":8511,"Ġnearest":8512,"Ġnymph":8513,"Ġninet":8514,"Ġlain":8515,"Ġlame":8516,"Ġlass":8517,"Ġlaughter":8518,"Ġlaz":8519,"Ġlecher":8520,"Ġyew":8521,"Ġyellow":8522,"Ġthra":8523,"Ġthres":8524,"Ġthrew":8525,"Ġthreef":8526,"arth":8527,"arling":8528,"Ġhook":8529,"Ġhilt":8530,"Ġhint":8531,"Ġhounds":8532,"Ġhills":8533,"Ġox":8534,"Ġost":8535,"Ġoce":8536,"Ġtoss":8537,"Ġphe":8538,"Ġpir":8539,"Ġpith":8540,"Ġpoo":8541,"Ġpul":8542,"Ġpull":8543,"Ġpark":8544,"Ġpens":8545,"Ġpotion":8546,"Ġpines":8547,"Ġpals":8548,"Ġpiled":8549,"Ġprunes":8550,"ĠIrish":8551,"Ġhen":8552,"Ġhew":8553,"Ġhedge":8554,"oting":8555,"oted":8556,"stit":8557,"stood":8558,"stool":8559,"strue":8560,"staring":8561,"owing":8562,"ange":8563,"anous":8564,"another":8565,"anks":8566,"answer":8567,"oming":8568,"Ġgle":8569,"Ġgay":8570,"Ġgir":8571,"Ġgear":8572,"Ġgilt":8573,"Ġgild":8574,"Ġgorge":8575,"Ġginger":8576,"Ġglove":8577,"atin":8578,"athan":8579,"atory":8580,"atiate":8581,"Ġbeho":8582,"Ġbecom":8583,"sea":8584,"Ġinhabit":8585,"Ġhab":8586,"Ġhaven":8587,"lex":8588,"lehill":8589,"ayer":8590,"ldren":8591,"iry":8592,"edy":8593,"uto":8594,"utus":8595,"utches":8596,"imple":8597,"Ġnotorious":8598,"cho":8599,"Ġissues":8600,"Ġforn":8601,"Ġforms":8602,"Ġforlorn":8603,"keep":8604,"Ġweb":8605,"ooing":8606,"Ġeg":8607,"Ġel":8608,"Ġew":8609,"Ġegg":8610,"hertsey":8611,"enting":8612,"rip":8613,"rian":8614,"ribe":8615,"Ġsty":8616,"Ġstart":8617,"Ġstall":8618,"Ġstage":8619,"Ġstint":8620,"Ġstew":8621,"Ġstray":8622,"Ġsteter":8623,"Ġstring":8624,"Ġstarts":8625,"Ġstrat":8626,"Ġkern":8627,"Ġkenn":8628,"ashy":8629,"asci":8630,"asite":8631,"Ġrevers":8632,"Ġrelish":8633,"Ġrelease":8634,"Ġrevell":8635,"lying":8636,"lysses":8637,"raign":8638,"Ġliars":8639,"urity":8640,"urther":8641,"urps":8642,"urbs":8643,"urope":8644,"alf":8645,"alo":8646,"alance":8647,"alty":8648,"Ġsoar":8649,"Ġsober":8650,"Ġsolace":8651,"Ġascend":8652,"Ġaspiring":8653,"rosby":8654,"hilip":8655,"vering":8656,"Ġshamed":8657,"Ġdol":8658,"Ġdoit":8659,"Ġdoings":8660,"usc":8661,"usale":8662,"usual":8663,"ussia":8664,"ifter":8665,"Ġsem":8666,"Ġsex":8667,"Ġsevent":8668,"Ġsepar":8669,"geon":8670,"geal":8671,"Thither":8672,"Throng":8673,"Ġsues":8674,"Ġsuret":8675,"Ġsulp":8676,"Told":8677,"Together":8678,"Ġherds":8679,"rung":8680,"ruised":8681,"things":8682,"thought":8683,"thren":8684,"Ġant":8685,"Ġangu":8686,"ternal":8687,"arded":8688,"hance":8689,"hanging":8690,"Ġspot":8691,"Ġspell":8692,"Ġspear":8693,"Ġspurn":8694,"Ġspace":8695,"Ġspotted":8696,"Ġfails":8697,"Ġfabric":8698,"ĠCy":8699,"ĠCot":8700,"ĠCast":8701,"ĠCall":8702,"ĠChertsey":8703,"ĠCrosby":8704,"Ġknell":8705,"Ġknavery":8706,"ĠRag":8707,"ĠRoss":8708,"ĠRussia":8709,"Ġvest":8710,"Ġvio":8711,"Ġvap":8712,"Ġvices":8713,"asted":8714,"astian":8715,"Ġwhate":8716,"ighton":8717,"Ġshine":8718,"Ġshouts":8719,"ulation":8720,"Ġupper":8721,"qua":8722,"quin":8723,"quis":8724,"qual":8725,"quess":8726,"quaint":8727,"quiet":8728,"Ġgoodman":8729,"usters":8730,"Ġpry":8731,"Ġatone":8732,"Ġmanly":8733,"Ġmankind":8734,"Ġmanacles":8735,"Ġmangled":8736,"ĠMab":8737,"Ġwheres":8738,"Ġwheels":8739,"ĠEurope":8740,"Ġamity":8741,"Ġamended":8742,"endom":8743,"icing":8744,"ican":8745,"icide":8746,"icester":8747,"Ġconver":8748,"Ġconvers":8749,"Ġconvent":8750,"Ġconstable":8751,"Ġblots":8752,"Ġblasp":8753,"vener":8754,"ĠGuild":8755,"ĠGregory":8756,"Forget":8757,"Ġshepher":8758,"Ġsheets":8759,"eminate":8760,"Ġgoest":8761,"areth":8762,"Ġwasp":8763,"oln":8764,"ĠLay":8765,"ĠLud":8766,"ĠLatin":8767,"Ġhatches":8768,"Ġknowest":8769,"Ġcannib":8770,"ersha":8771,"ershire":8772,"Ġsayest":8773,"Ġswim":8774,"Ġswine":8775,"Ġswifter":8776,"Ġbrine":8777,"Ġbrittle":8778,"pper":8779,"Ġorchard":8780,"ĠSay":8781,"ĠSome":8782,"ĠSix":8783,"ĠShow":8784,"ĠSeb":8785,"ĠSURREY":8786,"ĠSALIS":8787,"Ġusing":8788,"Ġusage":8789,"ĠOf":8790,"ĠOr":8791,"ĠOnce":8792,"ĠOverdone":8793,"ĠBel":8794,"ĠBoy":8795,"ĠBret":8796,"ĠBrist":8797,"ĠBrand":8798,"ĠBishop":8799,"odity":8800,"Ġung":8801,"Ġunity":8802,"Ġunman":8803,"Ġunaw":8804,"Ġunlo":8805,"Ġungra":8806,"Ġunacc":8807,"Ġungentle":8808,"Ġunivers":8809,"Ġunthrift":8810,"Ġunavoided":8811,"Ġunusual":8812,"igation":8813,"ĠHad":8814,"ĠHas":8815,"ĠHallow":8816,"hyme":8817,"elpho":8818,"Ġquest":8819,"Whence":8820,"Ġjar":8821,"Ġjump":8822,"Ġjoll":8823,"Ġhoped":8824,"cible":8825,"cipl":8826,"Ġprover":8827,"Ġproduce":8828,"Ġproffer":8829,"ĠPut":8830,"ĠPil":8831,"ĠPriam":8832,"ĠPhilip":8833,"Ġsails":8834,"umn":8835,"Ġplent":8836,"Ġplotted":8837,"pecially":8838,"ĠWife":8839,"Ġensue":8840,"Ġenroll":8841,"Ġenjoin":8842,"Ġenfranch":8843,"unch":8844,"Ġrood":8845,"Ġrings":8846,"Ġrates":8847,"Ġoutst":8848,"pted":8849,"pture":8850,"Ġhowl":8851,"ĠAE":8852,"ĠAg":8853,"ĠAt":8854,"ĠAfri":8855,"ĠAriel":8856,"ĠAbhors":8857,"ĠApril":8858,"Ġtrudge":8859,"Ġhandle":8860,"Ġsomebod":8861,"Ġmarquess":8862,"Inf":8863,"acket":8864,"ĠYes":8865,"Ġdislike":8866,"Ġdishes":8867,"Ġdisposed":8868,"Ġdiseases":8869,"Ġdiscipl":8870,"Ġhearth":8871,"Ġability":8872,"Ġabuses":8873,"Ġfoaming":8874,"Ġdaylight":8875,"Ġrod":8876,"Ġroad":8877,"Ġrope":8878,"Ġrogues":8879,"Ġroyally":8880,"Ġexha":8881,"Ġexternal":8882,"Ġtellus":8883,"agate":8884,"agems":8885,"Ġrip":8886,"Ġarticles":8887,"Ġarticle":8888,"Ġslide":8889,"Ġslanders":8890,"Ġwary":8891,"Ġwarning":8892,"Ġflour":8893,"Ġflag":8894,"Ġfliers":8895,"Ġfearless":8896,"ĠTHOMAS":8897,"bery":8898,"bering":8899,"oughby":8900,"Ġbrethren":8901,"Beg":8902,"apable":8903,"ighs":8904,"Ġgreatly":8905,"Ġfairies":8906,"izard":8907,"Ġpartake":8908,"Ġpartial":8909,"Ġcalling":8910,"Ġadul":8911,"Ġadorn":8912,"Ġadult":8913,"Ġadder":8914,"Ġcommit":8915,"Ġcommodity":8916,"Yourself":8917,"Ġclothe":8918,"Ġpreparation":8919,"Ġpregnant":8920,"assad":8921,"ĠDion":8922,"ĠDelpho":8923,"Ġperused":8924,"Ġperiod":8925,"liction":8926,"livion":8927,"Ġscra":8928,"Ġscare":8929,"Ġscars":8930,"Ġscouts":8931,"Ġpresum":8932,"Ġpresses":8933,"Ġprescri":8934,"Ġnightly":8935,"pery":8936,"peror":8937,"peration":8938,"Ġraw":8939,"Ġrarest":8940,"Ġraze":8941,"Ġrabble":8942,"Ġkeen":8943,"abb":8944,"ĠFifth":8945,"Ġapplause":8946,"Ġcontem":8947,"Ġremiss":8948,"Ġremote":8949,"ilty":8950,"swear":8951,"sworn":8952,"ressing":8953,"Ġbegging":8954,"Ġlongs":8955,"Ġlonging":8956,"ĠMark":8957,"Ġlively":8958,"meant":8959,"Ġrepaid":8960,"Ġreproof":8961,"Ġreprieve":8962,"forward":8963,"Ġmightily":8964,"atching":8965,"ĠJud":8966,"ĠJule":8967,"Ġrub":8968,"Ġconsume":8969,"Ġconserves":8970,"Ġcrowned":8971,"Ġpeck":8972,"Ġpeasant":8973,"hallow":8974,"Ġlevied":8975,"Ġharms":8976,"Ġharder":8977,"Ġresteth":8978,"Ġcourses":8979,"Ġentire":8980,"attery":8981,"Ġtongueless":8982,"Ġkeeping":8983,"iously":8984,"Ġslender":8985,"Ġreserved":8986,"Ġresidence":8987,"fts":8988,"Ġmoans":8989,"Ġmolehill":8990,"retion":8991,"Ġhourly":8992,"uddy":8993,"Ġendow":8994,"Ġendea":8995,"ieldy":8996,"Ġpricks":8997,"Ġpurged":8998,"Ġpurses":8999,"Ġpursues":9000,"Ġpurposes":9001,"Ġcompell":9002,"Ġcomposition":9003,"ertainty":9004,"Ġchain":9005,"Ġchaff":9006,"Ġchains":9007,"Prosper":9008,"Ġsuborn":9009,"Ġsubsc":9010,"Ġsubmission":9011,"Ġsuburbs":9012,"Ġsmiled":9013,"Ġsmelt":9014,"ected":9015,"Ġtraged":9016,"Ġtragic":9017,"Ġtraffic":9018,"Ġhush":9019,"Ġneedy":9020,"two":9021,"Ġtreble":9022,"Stir":9023,"Ġseemeth":9024,"Ġrightly":9025,"aching":9026,"Ġbragg":9027,"Ġbrazen":9028,"Ġcheers":9029,"Ġcharms":9030,"Ġcharters":9031,"Ġcharitable":9032,"Ġchanges":9033,"Ġconfined":9034,"Ġhandsome":9035,"beha":9036,"bered":9037,"Ġcoats":9038,"Ġglister":9039,"Ġimpose":9040,"Ġfortnight":9041,"Ġfortunate":9042,"Ġbringing":9043,"Ġmistook":9044,"Ġpasses":9045,"Ġthrong":9046,"Ġpleaseth":9047,"ĠAnswer":9048,"Clifford":9049,"Ġbesiege":9050,"Ġjustly":9051,"Ġjustify":9052,"Ġwrongfully":9053,"Ġmiscar":9054,"ension":9055,"Ġplaced":9056,"blind":9057,"Ġundert":9058,"Ġhelping":9059,"Ġlesson":9060,"Ġfooling":9061,"Ġsuns":9062,"Ġchid":9063,"Ġchides":9064,"Ġchron":9065,"Unb":9066,"Unw":9067,"Ġbusied":9068,"Angelo":9069,"overed":9070,"Ġstride":9071,"Ġstripes":9072,"ivity":9073,"Ġstreak":9074,"Ġwomanish":9075,"Ġturning":9076,"Ġhumane":9077,"Ġbelongs":9078,"Ġcourts":9079,"Ġtalked":9080,"Ġoverheard":9081,"Ġoverthrow":9082,"Ġbuilt":9083,"Ġburial":9084,"Ġibat":9085,"Ġattent":9086,"Ġattach":9087,"Ġplays":9088,"Ġinstance":9089,"Ġinstead":9090,"Ġwelcom":9091,"Ġwelkin":9092,"Ġcurs":9093,"Ġcurbs":9094,"Ġemulation":9095,"pling":9096,"plain":9097,"Ġsending":9098,"Ġcountryman":9099,"Ġdoubted":9100,"Ġwishing":9101,"Ġreasonable":9102,"Wouldst":9103,"Ġdances":9104,"Ġbreaths":9105,"Ġgiant":9106,"Ġstrain":9107,"Ġdiscred":9108,"Ġdiscords":9109,"Ġdiscreet":9110,"Ġdiscovery":9111,"Ġdiscretion":9112,"Alone":9113,"Ġsenis":9114,"Ġcommandment":9115,"Ġwinding":9116,"Ġstrang":9117,"Ġswearing":9118,"Ġdepth":9119,"comb":9120,"comfort":9121,"Ġtending":9122,"Ġgreets":9123,"Ġgetting":9124,"Ġintends":9125,"Ġintended":9126,"Ġinterest":9127,"Ġkissing":9128,"Ġbreaking":9129,"Ġawe":9130,"Ġawful":9131,"Hermione":9132,"Ġtemperate":9133,"Ġsupple":9134,"Ġspoils":9135,"Ġlamp":9136,"Ġrequite":9137,"Ġrequital":9138,"Ġmete":9139,"Ġsoonest":9140,"Ġreturns":9141,"acre":9142,"ackey":9143,"Ġmarrying":9144,"Ġfooting":9145,"Ġwarrants":9146,"ĠJulius":9147,"Ġthroughly":9148,"soe":9149,"Ġchoke":9150,"Ġcolder":9151,"Ġasked":9152,"Ġplucked":9153,"show":9154,"ĠMontgom":9155,"Ġstrangely":9156,"Ġbats":9157,"Ġentreated":9158,"Whoop":9159,"Ġvisor":9160,"Ġdispro":9161,"ixture":9162,"Mayor":9163,"Ġordain":9164,"Ġordinance":9165,"Ġquicken":9166,"Ġdesired":9167,"Ġhardy":9168,"Ġwooers":9169,"Ġinfancy":9170,"Ġinfamy":9171,"Ġinflu":9172,"Ġinfinite":9173,"Become":9174,"Spoke":9175,"Ġwearing":9176,"Ġdelivery":9177,"Ġspeedily":9178,"Ġquarre":9179,"Ġprofound":9180,"Ġstrengthen":9181,"cession":9182,"Ġforefather":9183,"Ġforerun":9184,"Ġforetell":9185,"Ġdivide":9186,"Ġcarrion":9187,"Ġposts":9188,"Ġposterns":9189,"Ġexecut":9190,"Ġparch":9191,"Ġparadise":9192,"Ġparlous":9193,"Ġparasite":9194,"Ġincur":9195,"Ġincapable":9196,"Ġrecount":9197,"ĠTheir":9198,"Ġtitles":9199,"Ġopening":9200,"Ġshorten":9201,"Ġseeking":9202,"Ġmurdering":9203,"changing":9204,"Ġvehe":9205,"ĠHelp":9206,"Ġagony":9207,"Ġagreement":9208,"Ġwhipped":9209,"Ġwatchful":9210,"Ġdistemper":9211,"Seeking":9212,"Ġacting":9213,"Ġwasted":9214,"Ġwondering":9215,"Ġbites":9216,"Ġbiting":9217,"Ġstole":9218,"Ġstirru":9219,"Ġclouded":9220,"suing":9221,"Ġdrinks":9222,"Ġpraised":9223,"Ġenterpr":9224,"voury":9225,"Ġfitter":9226,"Ġgarlic":9227,"Ġchangeling":9228,"Ġdeliverance":9229,"LORDS":9230,"ĠThink":9231,"Ġskin":9232,"Ġsickly":9233,"Ġsignories":9234,"Ġwishes":9235,"Ġregion":9236,"Ġregreet":9237,"Ġconsuls":9238,"Ġcheerful":9239,"Ġordering":9240,"Ġorderly":9241,"Ġfourth":9242,"Ġdug":9243,"Ġducats":9244,"Ġliberties":9245,"verns":9246,"Ġmoveables":9247,"shell":9248,"sheathe":9249,"Ġfrowning":9250,"Ġfeasting":9251,"Ġgrove":9252,"Ġsoften":9253,"Ġbeggary":9254,"Ġconsented":9255,"Revol":9256,"ĠForrest":9257,"hematic":9258,"Ġbarb":9259,"Ġbarr":9260,"Ġbargain":9261,"Ġdropp":9262,"Ġdarken":9263,"Ġdarkly":9264,"Ġcrad":9265,"Ġcrimes":9266,"Ġcrutch":9267,"ĠChurch":9268,"Ġexpost":9269,"Ġgotten":9270,"Ġintercept":9271,"Ġintercession":9272,"Ġevident":9273,"Ġsummon":9274,"Ġvictorious":9275,"Ġrespects":9276,"Ġbriefly":9277,"Ġvisiting":9278,"Ġmalicious":9279,"Ġspeechless":9280,"Ġworshipful":9281,"spo":9282,"Ġfresher":9283,"Ġfreshest":9284,"Ġlimb":9285,"Ġpenury":9286,"Ġpenny":9287,"ĠPlace":9288,"ĠPlayer":9289,"ĠPlashy":9290,"Ġleader":9291,"Ġpatiently":9292,"Ġlamentations":9293,"Ġbroils":9294,"Ġbawdy":9295,"Ġcleft":9296,"Ġcreation":9297,"Ġcapable":9298,"Ġcapital":9299,"Ġlacks":9300,"Ġopposed":9301,"Ġeating":9302,"Ġviolate":9303,"Ġapproaches":9304,"Ġcomplices":9305,"ĠChristendom":9306,"Ġsurm":9307,"Ġsurly":9308,"Ġsurvey":9309,"Conf":9310,"Plain":9311,"Pluck":9312,"Ġbirths":9313,"arlisle":9314,"Ġpainful":9315,"Ġbecame":9316,"Standing":9317,"Ġtorches":9318,"Ġtorments":9319,"Ġwildly":9320,"Ġcaus":9321,"Ġcertainly":9322,"semary":9323,"Ġinjured":9324,"Ġinnocency":9325,"Ġurging":9326,"Thinking":9327,"ĠStand":9328,"ĠStaff":9329,"Ġpleasures":9330,"Mariner":9331,"Ġapothecary":9332,"Ġshock":9333,"Ġmeditation":9334,"Ġobst":9335,"Ġobdur":9336,"Ġoblivion":9337,"Ġdooms":9338,"Ġfavourable":9339,"Ġuncertain":9340,"ighbours":9341,"ĠEnglishman":9342,"Ġlane":9343,"settled":9344,"Ġrefuge":9345,"ĠMercury":9346,"Ġtempor":9347,"Enforce":9348,"Envir":9349,"bborn":9350,"himself":9351,"Ġdrowning":9352,"angled":9353,"Ġeffects":9354,"Ġswiftly":9355,"ĠPrithee":9356,"Ġdesperately":9357,"Ġdoublet":9358,"Meaning":9359,"Ġauthorities":9360,"Ġfruits":9361,"Ġelders":9362,"Ġstudies":9363,"Ġstudied":9364,"Ġenjoys":9365,"Ġwretchedness":9366,"Brought":9367,"eye":9368,"eyed":9369,"Ġbastardy":9370,"Ġcorners":9371,"Ġhelms":9372,"stantial":9373,"Ġdegenerate":9374,"Ġseverity":9375,"ĠWilloughby":9376,"Ġcountermand":9377,"Ġcounterpo":9378,"Ġbeggarly":9379,"Loved":9380,"monstrous":9381,"Ġdwelling":9382,"Ġgentry":9383,"Ġbutchers":9384,"Ġunfit":9385,"Ġadded":9386,"Ġprivately":9387,"Ġverge":9388,"Ġverity":9389,"attling":9390,"Ġrelation":9391,"Ġrelieve":9392,"Ġdealing":9393,"Ġarrival":9394,"Ġsmoking":9395,"Blind":9396,"Desp":9397,"Except":9398,"constable":9399,"Ġbait":9400,"Ġstabbed":9401,"Ġspeeches":9402,"Ġshores":9403,"Ġproofs":9404,"Ġjointure":9405,"Ġprophecies":9406,"Ġembracements":9407,"Ġinnocents":9408,"Adieu":9409,"Advance":9410,"Ġedict":9411,"Ġwagon":9412,"rehend":9413,"Ġelection":9414,"Ġelements":9415,"Ġdecree":9416,"Ġdecrees":9417,"Ġnecessary":9418,"Ġnecessities":9419,"Ġsailors":9420,"Ġprevails":9421,"Rescue":9422,"Ġescap":9423,"ĠWherefore":9424,"Ġoffenders":9425,"Ġheaviness":9426,"Ġheavily":9427,"Showing":9428,"Ġprofession":9429,"Ġexpressly":9430,"appare":9431,"proud":9432,"Ġbandy":9433,"Ġbondage":9434,"Ġdetested":9435,"Ġcalf":9436,"Ġphysicians":9437,"Ġvanqu":9438,"Ġvanish":9439,"Ġdeserts":9440,"Ġtransg":9441,"Ġaffected":9442,"Ġleanness":9443,"Ġaccusations":9444,"Ġpunishment":9445,"Repair":9446,"Ġbasil":9447,"Ġfeeble":9448,"Ġfashions":9449,"Ġdivers":9450,"Ġports":9451,"Ġportion":9452,"Ġbewray":9453,"Ġcomplete":9454,"Ġambush":9455,"Ġambassad":9456,"Ġargument":9457,"Ġarguments":9458,"ĠProceed":9459,"Ġadvancement":9460,"Ġpersuaded":9461,"Ġpetitions":9462,"Ġsolemnity":9463,"Bearing":9464,"Heavens":9465,"exec":9466,"score":9467,"itae":9468,"Ġhostess":9469,"Ġobscured":9470,"Ġshunn":9471,"Ġblocks":9472,"Ġquality":9473,"Ġqualities":9474,"Ġqualify":9475,"Ġalteration":9476,"Ġmaidenhead":9477,"Ġvexation":9478,"Setting":9479,"brain":9480,"Ġmorsel":9481,"Ġdigest":9482,"Ġthorny":9483,"Ġsprites":9484,"ĠCobham":9485,"Ġcombat":9486,"Ġworthier":9487,"Ġworthiest":9488,"Ġjewels":9489,"ĠAdam":9490,"ĠAdieu":9491,"Ġdisperse":9492,"Ġclamorous":9493,"Ġdirectly":9494,"Accursed":9495,"maids":9496,"shapen":9497,"weary":9498,"Ġsymp":9499,"Ġsalute":9500,"Ġfiends":9501,"Ġdimm":9502,"Ġdriven":9503,"Ġceremony":9504,"Ġlinen":9505,"Ġhorrible":9506,"Ġpikes":9507,"Ġforsook":9508,"Ġreckless":9509,"Ġunjustly":9510,"Ġenforcement":9511,"Ġdissembling":9512,"Ġfloods":9513,"Ġrestrain":9514,"Ġresisted":9515,"Ġaffliction":9516,"Ġreconciled":9517,"Ġhelmets":9518,"Ġcomplexions":9519,"Imagine":9520,"Knows":9521,"Quick":9522,"Rich":9523,"Richmond":9524,"Smile":9525,"boding":9526,"ratitude":9527,"warrant":9528,"Ġtimorous":9529,"oubted":9530,"Ġmirror":9531,"Ġmessage":9532,"inctly":9533,"Ġbuckle":9534,"Ġdifferen":9535,"Ġdifference":9536,"Ġlineal":9537,"Ġgrub":9538,"Ġstumbled":9539,"Ġreceives":9540,"Ġreceipt":9541,"Ġshameless":9542,"Ġfactious":9543,"Ġdispleased":9544,"Ġdisguise":9545,"Ġcoffin":9546,"Ġcoffers":9547,"Ġgratis":9548,"Ġincense":9549,"Ġacquaintance":9550,"Awaked":9551,"Darest":9552,"Witness":9553,"Withal":9554,"pretation":9555,"Ġtoucheth":9556,"Ġtrod":9557,"Ġbonny":9558,"Ġfretting":9559,"Ġnettle":9560,"Ġlurk":9561,"Ġlurking":9562,"Ġthirsty":9563,"Ġhomicide":9564,"Ġhighest":9565,"Ġtoys":9566,"Ġwealthy":9567,"Ġspectacle":9568,"Ġblasts":9569,"ĠValent":9570,"ĠValeria":9571,"Ġhopeless":9572,"Ġengross":9573,"Ġflinty":9574,"Ġbeguiled":9575,"Ġsubdue":9576,"Ġsubdued":9577,"Ġbeauties":9578,"Ġbeautiful":9579,"Ġsacrifice":9580,"Ġlengthens":9581,"Brave":9582,"Persuade":9583,"Persuades":9584,"Write":9585,"called":9586,"contin":9587,"Ġsession":9588,"Ġmathematic":9589,"Ġporter":9590,"Ġpainting":9591,"Ġgnaw":9592,"Ġgainsay":9593,"seeming":9594,"Ġgossips":9595,"Ġuneven":9596,"Ġunrevere":9597,"Ġprodigy":9598,"Ġprodigal":9599,"Ġencourage":9600,"Ġdisinherit":9601,"Ġdisinherited":9602,"Ġabundant":9603,"Ġabundance":9604,"Ġrobbers":9605,"Ġcontrol":9606,"Ġcontroversy":9607,"Ġaccomplish":9608,"Ġtrenches":9609,"Ġbuzzard":9610,"Ġattorneys":9611,"Ġdrooping":9612,"Ġembraced":9613,"Ġobsequies":9614,"Ġdetestable":9615,"Acquaint":9616,"Caius":9617,"beseeming":9618,"tinent":9619,"Ġmasqu":9620,"Ġbulk":9621,"Ġfifty":9622,"Ġfilthy":9623,"Ġcropp":9624,"Ġpowder":9625,"Ġpicture":9626,"Ġeffeminate":9627,"Ġstinking":9628,"Ġdeceased":9629,"Ġdeformity":9630,"Ġdoleful":9631,"Ġannoy":9632,"Ġancestors":9633,"Ġsparkling":9634,"ĠLovel":9635,"Ġplanet":9636,"ĠWestmin":9637,"Ġrheum":9638,"Ġrigour":9639,"Ġclergy":9640,"Ġeverlasting":9641,"Ġrumour":9642,"Ġaccompany":9643,"Ġchampion":9644,"Ġconfederate":9645,"Ġafterwards":9646,"Happily":9647,"Ġcriminal":9648,"Ġsummers":9649,"Ġinsinuate":9650,"Ġunprovided":9651,"Ġunluckily":9652,"Ġmagistrate":9653,"Ġlineaments":9654,"Ġsurprised":9655,"Ġfantastical":9656,"Ġmomentary":9657,"Banish":9658,"Deny":9659,"Destroy":9660,"Err":9661,"Renowned":9662,"married":9663,"minded":9664,"person":9665,"sometimes":9666,"withal":9667,"ĠUlysses":9668,"Ġturtle":9669,"Ġtinker":9670,"Ġtreaty":9671,"Ġacknowledge":9672,"Ġmantle":9673,"Ġderived":9674,"Ġdiligence":9675,"Ġdrowsy":9676,"Ġcandle":9677,"Ġyesternight":9678,"Ġominous":9679,"Ġgamut":9680,"Ġbeetle":9681,"Ġinveterate":9682,"Ġinvention":9683,"Ġinheritance":9684,"imois":9685,"Ġstubborn":9686,"Ġresemblance":9687,"ĠCleomenes":9688,"Ġvigour":9689,"Forthwith":9690,"ĠLammas":9691,"Ġorphans":9692,"Ġusurer":9693,"Ġunpleasing":9694,"Ġworships":9695,"ĠHappy":9696,"ĠAmazon":9697,"Ġdisloyal":9698,"Ġexclaims":9699,"ĠTurks":9700,"Ġprecise":9701,"Ġscourge":9702,"Ġchivalry":9703,"Ġappellant":9704,"Ġimmediately":9705,"ĠJerusale":9706,"ĠJuno":9707,"Ġconspiracy":9708,"Ġchafed":9709,"Ġsuppliant":9710,"Ġinfringe":9711,"Ġinfirmity":9712,"Ġminstrels":9713,"Ġdistinguish":9714,"Ġmalignant":9715,"Ġargosy":9716,"scaped":9717,"Pursuivant":9718,"Ġeloquence":9719,"BLUNT":9720,"Breathe":9721,"Children":9722,"EARL":9723,"FRANCIS":9724,"Glad":9725,"Hostess":9726,"Juliet":9727,"Merely":9728,"Perchance":9729,"Senators":9730,"Souls":9731,"Stop":9732,"Tongue":9733,"creature":9734,"corner":9735,"danger":9736,"igeia":9737,"makers":9738,"ozine":9739,"Ġtumult":9740,"Ġsurname":9741,"Ġbustle":9742,"Ġbauble":9743,"Ġbashful":9744,"Ġfuture":9745,"Ġnineteen":9746,"Ġlazy":9747,"Ġthreefold":9748,"Ġpoorest":9749,"Ġgirls":9750,"athaniel":9751,"Ġsteterat":9752,"Ġstratagems":9753,"Ġkennel":9754,"ascivious":9755,"Ġseparated":9756,"Ġsulphur":9757,"Ġanguish":9758,"ĠCastle":9759,"ĠRagozine":9760,"Ġviolet":9761,"Ġshepherds":9762,"ĠLudlow":9763,"ĠSixth":9764,"ĠSebastian":9765,"ĠSALISBURY":9766,"ĠBristol":9767,"ĠBrandon":9768,"Ġunawares":9769,"Ġunaccustom":9770,"ĠHallowmas":9771,"ĠAbhorson":9772,"Ġsomebody":9773,"Ġadulteress":9774,"ĠDelphos":9775,"Ġsubscribe":9776,"ĠMontgomery":9777,"Ġenterprise":9778,"ĠStafford":9779,"Ġobdurate":9780,"Ġmathematics":9781,"ĠWestminster":9782,"ĠJerusalem":9783,"'m":9784,"'ve":9785,"Aim":9786,"Ant":9787,"Ariel":9788,"Bu":9789,"Bea":9790,"Bare":9791,"Been":9792,"Base":9793,"Bianca":9794,"Boot":9795,"Bishop":9796,"Bushy":9797,"Brief":9798,"Cor":9799,"Cur":9800,"Chan":9801,"CARD":9802,"Crown":9803,"Cull":9804,"Certain":9805,"Coun":9806,"Cambio":9807,"Cuts":9808,"Captain":9809,"Dre":9810,"Day":9811,"Dra":9812,"Done":9813,"Dry":9814,"Dig":9815,"Del":9816,"Dull":9817,"Deep":9818,"Dorset":9819,"During":9820,"EAS":9821,"Emb":9822,"Earth":9823,"Fan":9824,"Four":9825,"Fam":9826,"Fast":9827,"Fare":9828,"Further":9829,"Gro":9830,"Gave":9831,"Gremio":9832,"Grim":9833,"Grief":9834,"Him":9835,"Hea":9836,"HEY":9837,"Holl":9838,"Honour":9839,"Hover":9840,"Honest":9841,"Half":9842,"Iron":9843,"Joy":9844,"Jove":9845,"John":9846,"Killing":9847,"Le":9848,"Lim":9849,"Lau":9850,"List":9851,"Learn":9852,"Laid":9853,"Lift":9854,"Lament":9855,"Lascivious":9856,"Mond":9857,"Meet":9858,"Merc":9859,"Matter":9860,"Mont":9861,"Mars":9862,"Maid":9863,"Mortal":9864,"Menenius":9865,"New":9866,"Need":9867,"Nature":9868,"Pe":9869,"Po":9870,"Pom":9871,"Ple":9872,"Pri":9873,"Pra":9874,"Past":9875,"Pity":9876,"Pass":9877,"Pret":9878,"Padua":9879,"Pisa":9880,"Prick":9881,"Ra":9882,"Rec":9883,"Rise":9884,"Rage":9885,"RIST":9886,"Sk":9887,"Sl":9888,"Sn":9889,"Sed":9890,"Sith":9891,"Sher":9892,"Sea":9893,"Saint":9894,"Sister":9895,"Spl":9896,"Sham":9897,"Suff":9898,"Sorry":9899,"Safe":9900,"Silence":9901,"Simois":9902,"Ty":9903,"Tor":9904,"Thi":9905,"Tear":9906,"Tend":9907,"Tick":9908,"Tears":9909,"Taking":9910,"Tread":9911,"Troth":9912,"Taste":9913,"TIT":9914,"Temper":9915,"Tribunes":9916,"Us":9917,"Vis":9918,"VEL":9919,"Vince":9920,"Vile":9921,"Verona":9922,"Wear":9923,"Wind":9924,"Wish":9925,"Wise":9926,"Wrong":9927,"Words":9928,"Wrench":9929,"York":9930,"ah":9931,"avy":9932,"acheth":9933,"avoury":9934,"bu":9935,"bet":9936,"bion":9937,"bout":9938,"both":9939,"bound":9940,"been":9941,"bew":9942,"bary":9943,"bring":9944,"brows":9945,"bawd":9946,"bishop":9947,"cr":9948,"cre":9949,"cer":9950,"cke":9951,"crow":9952,"cum":9953,"cold":9954,"cass":9955,"cause":9956,"cup":9957,"cures":9958,"cover":9959,"cote":9960,"cerity":9961,"did":9962,"dam":9963,"die":9964,"del":9965,"dges":9966,"dying":9967,"dares":9968,"ev":9969,"ece":9970,"even":9971,"ection":9972,"fes":9973,"fear":9974,"fast":9975,"five":9976,"fond":9977,"fig":9978,"fire":9979,"face":9980,"fied":9981,"fool":9982,"fair":9983,"finger":9984,"false":9985,"front":9986,"gent":9987,"gess":9988,"god":9989,"gger":9990,"gier":9991,"gments":9992,"gentleman":9993,"gging":9994,"goose":9995,"hot":9996,"home":9997,"hum":9998,"hings":9999,"hunt":10000,"hours":10001,"hrew":10002,"horses":10003,"honest":10004,"ii":10005,"ipher":10006,"iency":10007,"iercing":10008,"journ":10009,"jurious":10010,"known":10011,"knew":10012,"kfulness":10013,"lore":10014,"lant":10015,"lady":10016,"lings":10017,"lars":10018,"mor":10019,"mend":10020,"mother":10021,"mod":10022,"mple":10023,"mock":10024,"mark":10025,"music":10026,"mmer":10027,"mouth":10028,"motion":10029,"mitted":10030,"masters":10031,"mercy":10032,"maker":10033,"nz":10034,"nit":10035,"non":10036,"ned":10037,"nard":10038,"nity":10039,"nable":10040,"nounce":10041,"oan":10042,"oil":10043,"oise":10044,"ogy":10045,"pit":10046,"pan":10047,"pill":10048,"pur":10049,"pore":10050,"pate":10051,"purse":10052,"power":10053,"pile":10054,"position":10055,"pointed":10056,"prison":10057,"pipe":10058,"persu":10059,"rot":10060,"rine":10061,"round":10062,"rite":10063,"ruth":10064,"rons":10065,"sm":10066,"sight":10067,"sound":10068,"suck":10069,"ssed":10070,"spect":10071,"said":10072,"silence":10073,"sky":10074,"simple":10075,"tre":10076,"tri":10077,"test":10078,"town":10079,"turn":10080,"tide":10081,"talk":10082,"tail":10083,"trust":10084,"teeth":10085,"truly":10086,"ux":10087,"uit":10088,"ugh":10089,"uct":10090,"uel":10091,"uance":10092,"uft":10093,"uities":10094,"ucal":10095,"ucing":10096,"uiced":10097,"vors":10098,"virt":10099,"vouch":10100,"vict":10101,"vial":10102,"vals":10103,"wore":10104,"wood":10105,"west":10106,"wall":10107,"wish":10108,"wag":10109,"wilt":10110,"walk":10111,"wonder":10112,"words":10113,"wooing":10114,"xy":10115,"yers":10116,"yves":10117,"years":10118,"youth":10119,"zes":10120,"zalo":10121,"Ġ:":10122,"Ġess":10123,"ĠThat":10124,"ĠUpon":10125,"Ġounce":10126,"ĠQu":10127,"Ġtar":10128,"Ġtesty":10129,"Ġtush":10130,"Ġtithe":10131,"Ġtires":10132,"Ġtaming":10133,"Ġtables":10134,"Ġtalks":10135,"Ġtabour":10136,"Ġthaw":10137,"Ġtuft":10138,"heer":10139,"hear":10140,"heir":10141,"heth":10142,"heres":10143,"heads":10144,"Ġaed":10145,"Ġaut":10146,"Ġaus":10147,"Ġache":10148,"Ġapes":10149,"Ġavail":10150,"Ġaqua":10151,"Ġavouch":10152,"ouched":10153,"ourest":10154,"Ġsce":10155,"Ġsout":10156,"Ġsci":10157,"Ġserving":10158,"Ġsip":10159,"Ġsainted":10160,"Ġsize":10161,"Ġmam":10162,"Ġmoth":10163,"Ġmol":10164,"Ġmaw":10165,"Ġmalm":10166,"Ġmatt":10167,"Ġmakest":10168,"Ġmature":10169,"Ġmusc":10170,"Ġmuddy":10171,"init":10172,"inst":10173,"inch":10174,"inent":10175,"inest":10176,"inand":10177,"inter":10178,"inant":10179,"inish":10180,"inence":10181,"into":10182,"inary":10183,"inning":10184,"inions":10185,"Ġwive":10186,"Ġwool":10187,"Ġwield":10188,"Ġwip":10189,"Ġwaded":10190,"reb":10191,"reck":10192,"requ":10193,"rection":10194,"recy":10195,"having":10196,"hapen":10197,"Ġbout":10198,"Ġbough":10199,"Ġbower":10200,"Ġbull":10201,"Ġbled":10202,"Ġbiss":10203,"Ġbits":10204,"Ġbitt":10205,"Ġbars":10206,"Ġbaked":10207,"Ġborough":10208,"Ġbias":10209,"Ġbunch":10210,"Ġbattery":10211,"isans":10212,"isheth":10213,"ora":10214,"oro":10215,"orst":10216,"orable":10217,"orks":10218,"orged":10219,"orcester":10220,"orpor":10221,"Ġfay":10222,"Ġfust":10223,"Ġfel":10224,"Ġfert":10225,"Ġfade":10226,"Ġfitt":10227,"Ġfours":10228,"Ġfined":10229,"Ġfume":10230,"Ġfurious":10231,"Ġfaded":10232,"Ġfishes":10233,"Ġfidd":10234,"Ġfuel":10235,"eral":10236,"erver":10237,"erth":10238,"erry":10239,"erick":10240,"erness":10241,"erbear":10242,"erately":10243,"erpast":10244,"erween":10245,"lled":10246,"itle":10247,"itter":10248,"itic":10249,"itied":10250,"itud":10251,"itary":10252,"itution":10253,"ittering":10254,"itzwater":10255,"onition":10256,"onesty":10257,"onzalo":10258,"Ġdul":10259,"Ġdart":10260,"Ġdive":10261,"Ġdau":10262,"Ġdall":10263,"Ġdough":10264,"Ġdates":10265,"Ġdirt":10266,"Ġdial":10267,"Ġdaunt":10268,"Ġdump":10269,"Ġdally":10270,"Ġdiff":10271,"Ġdawn":10272,"Ġdaff":10273,"Ġdarts":10274,"Ġdumps":10275,"Ġcu":10276,"Ġcod":10277,"Ġcel":10278,"Ġcoy":10279,"Ġcull":10280,"Ġcable":10281,"Ġcitizen":10282,"Ġcakes":10283,"Ġcured":10284,"Ġcats":10285,"Ġcures":10286,"Ġcuff":10287,"Ġcities":10288,"Ġcott":10289,"Ġcamp":10290,"Ġcater":10291,"Ġcrick":10292,"Ġcyp":10293,"Ġcipher":10294,"esnes":10295,"enel":10296,"enious":10297,"encounter":10298,"enances":10299,"Ġnim":10300,"Ġnation":10301,"Ġnurs":10302,"Ġnuts":10303,"Ġnavy":10304,"Ġla":10305,"Ġlure":10306,"Ġlime":10307,"Ġlag":10308,"Ġlave":10309,"Ġlatter":10310,"Ġlump":10311,"Ġlackey":10312,"Ġlitter":10313,"Ġyard":10314,"Ġthigh":10315,"Ġthrows":10316,"Ġthimble":10317,"Ġthorough":10318,"arr":10319,"arce":10320,"arri":10321,"arallel":10322,"arbary":10323,"Ġhy":10324,"Ġhound":10325,"Ġhild":10326,"Ġhides":10327,"Ġhoop":10328,"Ġhunts":10329,"Ġhyp":10330,"Ġhugg":10331,"Ġoil":10332,"Ġtot":10333,"Ġtore":10334,"Ġtokens":10335,"Ġps":10336,"Ġply":10337,"Ġpea":10338,"Ġpru":10339,"Ġpout":10340,"Ġpond":10341,"Ġpence":10342,"Ġpins":10343,"Ġpile":10344,"Ġpars":10345,"Ġponder":10346,"Ġpump":10347,"Ġpip":10348,"Ġpities":10349,"Ġpelting":10350,"Ġphra":10351,"hating":10352,"ĠImp":10353,"Ġhent":10354,"Ġhewn":10355,"Ġheated":10356,"Ġhearers":10357,"vex":10358,"vels":10359,"otent":10360,"otche":10361,"otions":10362,"otpan":10363,"stal":10364,"stain":10365,"stock":10366,"stones":10367,"strange":10368,"anied":10369,"anched":10370,"annib":10371,"omy":10372,"ominable":10373,"Ġgas":10374,"Ġgore":10375,"Ġgest":10376,"Ġgun":10377,"Ġglo":10378,"Ġgale":10379,"Ġgird":10380,"Ġgiv":10381,"Ġgees":10382,"Ġgames":10383,"Ġgazed":10384,"Ġgamb":10385,"Ġgilly":10386,"Ġgasp":10387,"Ġghast":10388,"Ġgyves":10389,"atal":10390,"attle":10391,"atisf":10392,"Ġbeck":10393,"Ġbeam":10394,"Ġbede":10395,"Ġbeards":10396,"Ġbeheaded":10397,"Ġbemo":10398,"seed":10399,"sever":10400,"seven":10401,"sembles":10402,"Ġinher":10403,"Ġinde":10404,"Ġinches":10405,"Ġinvest":10406,"Ġinex":10407,"Ġinforced":10408,"Ġinvoc":10409,"Ġinhum":10410,"cease":10411,"cember":10412,"Ġhal":10413,"Ġhay":10414,"Ġhack":10415,"Ġhagg":10416,"Ġhaunts":10417,"Ġhammer":10418,"lem":10419,"learn":10420,"aynard":10421,"ldst":10422,"irand":10423,"etry":10424,"ediness":10425,"edeem":10426,"utor":10427,"utish":10428,"utiful":10429,"utoly":10430,"Ġmeas":10431,"Ġmeek":10432,"imy":10433,"imer":10434,"imon":10435,"ithmet":10436,"Ġnothings":10437,"chion":10438,"church":10439,"chbishop":10440,"Ġfork":10441,"Ġforged":10442,"Ġforges":10443,"Ġforfend":10444,"Ġforfeits":10445,"keeping":10446,"Ġwean":10447,"Ġwealt":10448,"Ġweeks":10449,"ooch":10450,"oosing":10451,"Ġeaster":10452,"Ġeats":10453,"Ġepit":10454,"hers":10455,"herds":10456,"Ġwithholds":10457,"entation":10458,"Ġitch":10459,"add":10460,"ading":10461,"adies":10462,"adition":10463,"adders":10464,"rid":10465,"ripp":10466,"ride":10467,"rivener":10468,"Ġstam":10469,"Ġstif":10470,"Ġstake":10471,"Ġstings":10472,"Ġstee":10473,"Ġstuck":10474,"Ġstates":10475,"Ġstair":10476,"Ġstains":10477,"Ġstony":10478,"Ġstaves":10479,"Ġstumbling":10480,"Ġkitche":10481,"Ġhiss":10482,"ids":10483,"idity":10484,"ideth":10485,"idels":10486,"ashing":10487,"assed":10488,"asury":10489,"Ġreel":10490,"Ġreins":10491,"Ġreek":10492,"Ġrenew":10493,"Ġrevoke":10494,"Ġrenounce":10495,"Ġrehear":10496,"Ġresembles":10497,"lymp":10498,"ram":10499,"rain":10500,"rained":10501,"raught":10502,"ramed":10503,"racted":10504,"Ġliver":10505,"Ġlibr":10506,"Ġlicence":10507,"url":10508,"alian":10509,"alms":10510,"Ġsol":10511,"Ġsops":10512,"Ġsoever":10513,"Ġsoothing":10514,"Ġsoothe":10515,"Ġasks":10516,"Ġasunder":10517,"Ġdeem":10518,"Ġdeity":10519,"Ġdeign":10520,"rob":10521,"roses":10522,"roying":10523,"hic":10524,"hily":10525,"hips":10526,"oody":10527,"estim":10528,"Ġshaped":10529,"eaf":10530,"Ġdoers":10531,"Ġdoff":10532,"Ġwillow":10533,"amour":10534,"amine":10535,"Ġnodd":10536,"Ġnoisome":10537,"Ġnovice":10538,"usan":10539,"usband":10540,"uspect":10541,"ushed":10542,"andon":10543,"ifs":10544,"ifies":10545,"ificial":10546,"Ġseed":10547,"Ġseats":10548,"Ġseals":10549,"Ġseeds":10550,"Ġselves":10551,"genders":10552,"Threw":10553,"Thomas":10554,"Ġally":10555,"Ġallied":10556,"Ġsums":10557,"runk":10558,"thine":10559,"thread":10560,"tern":10561,"Ġlogs":10562,"Ġlosing":10563,"Ġlolling":10564,"Ġlogger":10565,"hankfulness":10566,"ellist":10567,"earing":10568,"Ġspies":10569,"Ġspran":10570,"Ġspray":10571,"Ġspright":10572,"Ġspawn":10573,"Ġsparing":10574,"Ġspacious":10575,"Ġsprung":10576,"iless":10577,"ilities":10578,"iliments":10579,"ĠCon":10580,"ĠCret":10581,"ĠCousin":10582,"ĠCarlisle":10583,"ĠCheer":10584,"romise":10585,"Ġnecks":10586,"Ġnephe":10587,"hod":10588,"hose":10589,"holesome":10590,"Ġknack":10591,"Ġknots":10592,"ĠRe":10593,"ĠRather":10594,"ĠRedeem":10595,"Ġvall":10596,"Ġvail":10597,"Ġvaunt":10598,"Ġvouchsafe":10599,"Ġvouches":10600,"Ġvizard":10601,"Ġvitae":10602,"ERKE":10603,"Ġshy":10604,"Ġshin":10605,"Ġshining":10606,"anting":10607,"Ġupholds":10608,"quer":10609,"ques":10610,"quent":10611,"quire":10612,"question":10613,"arting":10614,"aths":10615,"athy":10616,"onely":10617,"oneous":10618,"Ġprone":10619,"Ġpratest":10620,"Ġprank":10621,"Ġproro":10622,"Ġprattle":10623,"Ġcomfor":10624,"Ġmanors":10625,"Ġmansion":10626,"Whatever":10627,"ĠMake":10628,"ĠMost":10629,"ĠMort":10630,"ĠMON":10631,"ĠMamill":10632,"ĠMEAS":10633,"ĠMirand":10634,"ĠEre":10635,"ĠEthi":10636,"ĠExton":10637,"ĠEcho":10638,"Ġample":10639,"Ġamount":10640,"Ġampl":10641,"Ġambling":10642,"ics":10643,"icite":10644,"Ġconn":10645,"Ġcony":10646,"Ġconst":10647,"Ġconvenient":10648,"Ġcongeal":10649,"ieving":10650,"Ġblench":10651,"Ġbloss":10652,"Ġblushes":10653,"Ġblank":10654,"Ġblanks":10655,"venged":10656,"ĠGall":10657,"ĠGlou":10658,"ĠGrace":10659,"ĠGonzalo":10660,"Fors":10661,"Force":10662,"Forced":10663,"Fortune":10664,"Forswear":10665,"Ġsheer":10666,"Ġsheet":10667,"Ġsheath":10668,"ements":10669,"embra":10670,"emaker":10671,"embered":10672,"empore":10673,"arest":10674,"outham":10675,"aucas":10676,"Held":10677,"Heir":10678,"Helen":10679,"olate":10680,"olation":10681,"olution":10682,"olitan":10683,"ology":10684,"ĠLy":10685,"ĠLend":10686,"ĠLuke":10687,"ĠLiby":10688,"Ġhates":10689,"LOVEL":10690,"indeed":10691,"Ġthereon":10692,"Ġtherewithal":10693,"Ġcanon":10694,"Ġcancell":10695,"ephen":10696,"few":10697,"fered":10698,"ondam":10699,"ondrous":10700,"resolved":10701,"resseth":10702,"ateful":10703,"Ġhereof":10704,"Ġheretic":10705,"Ġloveth":10706,"Ġlovelier":10707,"Ġswan":10708,"Ġswept":10709,"Ġswarm":10710,"Ġbrood":10711,"Ġbrats":10712,"Ġbrutish":10713,"Ġbrooch":10714,"ppers":10715,"Ġorb":10716,"Ġorison":10717,"Ġorators":10718,"Ġorange":10719,"Ġoratory":10720,"allible":10721,"ĠSh":10722,"ĠSon":10723,"ĠSend":10724,"ĠSure":10725,"ĠSince":10726,"ĠSuff":10727,"ĠSigeia":10728,"ĠSusan":10729,"ĠSoutham":10730,"Ġusest":10731,"Ġusual":10732,"Ġusurps":10733,"ĠOlymp":10734,"ĠBest":10735,"ĠBarbary":10736,"ĠBaynard":10737,"ĠBERKE":10738,"Ġarrog":10739,"Ġarraign":10740,"ody":10741,"odes":10742,"odils":10743,"Ġlethar":10744,"Ġletting":10745,"Ġunable":10746,"Ġunfort":10747,"Ġunking":10748,"Ġunspeak":10749,"Ġunadvised":10750,"Ġungovern":10751,"Ġunpeople":10752,"Ġunhapp":10753,"Ġunquiet":10754,"Ġunhallow":10755,"Ġunsettled":10756,"igm":10757,"igs":10758,"igen":10759,"igate":10760,"igree":10761,"inkle":10762,"ĠHoo":10763,"ĠHence":10764,"ĠHouse":10765,"ĠHung":10766,"ĠHoll":10767,"ĠHang":10768,"ĠHacket":10769,"ĠHugh":10770,"orts":10771,"ortive":10772,"ortham":10773,"ĠVarri":10774,"Ask":10775,"Ascend":10776,"Assist":10777,"elier":10778,"Ġquaff":10779,"Ġquondam":10780,"Ġjay":10781,"Ġjars":10782,"Ġjaunt":10783,"Ġjades":10784,"Ġjog":10785,"reation":10786,"aketh":10787,"ounding":10788,"Ġgraver":10789,"Ġgrains":10790,"Ġgravity":10791,"Ġholl":10792,"Ġhoard":10793,"Ġhoping":10794,"Ġproves":10795,"Ġproli":10796,"Ġpropose":10797,"Ġproject":10798,"Ġprobation":10799,"Ġprolong":10800,"ĠPeace":10801,"ĠPotpan":10802,"Ġsaves":10803,"Ġsavours":10804,"Ġmadmen":10805,"umm":10806,"uming":10807,"umbly":10808,"ummon":10809,"Ġplight":10810,"Ġplough":10811,"Ġplots":10812,"Ġplume":10813,"Ġplagues":10814,"AUGH":10815,"peer":10816,"enced":10817,"ĠWith":10818,"ĠWood":10819,"ĠWhich":10820,"ĠWere":10821,"ĠWorcester":10822,"ists":10823,"isted":10824,"many":10825,"Ġencl":10826,"Ġencom":10827,"Ġencoun":10828,"Ġenvir":10829,"Ġensign":10830,"Ġensuing":10831,"Ġengenders":10832,"unction":10833,"uncle":10834,"Ġrar":10835,"Ġrat":10836,"Ġrite":10837,"Ġrounds":10838,"Ġrayed":10839,"Ġrhyme":10840,"Ġpoets":10841,"Ġpoetry":10842,"decess":10843,"deceiving":10844,"Ġoutside":10845,"pton":10846,"Ġfrivol":10847,"Ġhowling":10848,"ĠAre":10849,"ĠArt":10850,"ĠAbra":10851,"ĠAutoly":10852,"Ġhandled":10853,"ignation":10854,"Ġwhoever":10855,"Ġmarches":10856,"irer":10857,"harm":10858,"harp":10859,"Inst":10860,"Inter":10861,"Incl":10862,"Injurious":10863,"Inquire":10864,"ĠYe":10865,"ĠYorks":10866,"Ġdispose":10867,"Ġdisfig":10868,"Weep":10869,"Weigh":10870,"Weeping":10871,"wness":10872,"Ġheaved":10873,"Ġheaps":10874,"Ġhearken":10875,"Ġhearkens":10876,"ecess":10877,"Oft":10878,"Ġbloods":10879,"Ġabound":10880,"Ġabject":10881,"Ġabides":10882,"Ġabominable":10883,"Ġabandon":10884,"Ġabortive":10885,"Ġfoem":10886,"Ġfoison":10887,"Ġearls":10888,"Ġroe":10889,"Ġrobe":10890,"Ġroots":10891,"Ġroared":10892,"Ġrosemary":10893,"Ġexiled":10894,"Ġexamp":10895,"Ġexcels":10896,"eeting":10897,"Sold":10898,"Ġeyed":10899,"Ġwhereupon":10900,"agon":10901,"agion":10902,"agab":10903,"agued":10904,"Ġdeserving":10905,"Ġdesiring":10906,"Ġdesperation":10907,"avel":10908,"Ġgentlewomen":10909,"Howe":10910,"Ġriot":10911,"Ġrice":10912,"Ġrift":10913,"Ġrider":10914,"Ġribs":10915,"Ġricher":10916,"Ġribb":10917,"Ġrival":10918,"Ġrivals":10919,"Ġarts":10920,"Ġartificial":10921,"Whereby":10922,"Ġhonourably":10923,"Ġslower":10924,"Ġslumber":10925,"Ġslug":10926,"Ġslavish":10927,"Ġwarp":10928,"Ġfling":10929,"Ġflout":10930,"Ġflap":10931,"Ġflung":10932,"Ġflayed":10933,"urnish":10934,"Ġhastily":10935,"Ġtwin":10936,"Ġtwos":10937,"Ġtwigs":10938,"ĠTrust":10939,"ĠTiber":10940,"Ġbetake":10941,"berate":10942,"berries":10943,"Ġbreeder":10944,"Ġbreech":10945,"ccess":10946,"Behind":10947,"aph":10948,"apert":10949,"ighing":10950,"ĠKates":10951,"ĠKnow":10952,"Whoever":10953,"Ġmenace":10954,"Ġcouch":10955,"Ġcouched":10956,"astery":10957,"Ġpartisans":10958,"reech":10959,"please":10960,"pleasure":10961,"Ġadds":10962,"Ġcommune":10963,"Ġstanders":10964,"Ġstandards":10965,"Ġclout":10966,"Ġcloth":10967,"Ġclime":10968,"Ġcloy":10969,"Ġclos":10970,"Ġclip":10971,"Ġclang":10972,"Ġclapp":10973,"Ġclutch":10974,"Ġclubs":10975,"Ġclusters":10976,"Ġpredom":10977,"Ġprecept":10978,"Ġprecip":10979,"Ġpreposterous":10980,"Ġprenz":10981,"Ġpredecess":10982,"Ġsweeten":10983,"Ġsweeting":10984,"Ġpraying":10985,"Ġprayed":10986,"ĠDear":10987,"ĠDoth":10988,"ĠDost":10989,"ĠDown":10990,"ĠDick":10991,"ĠDukes":10992,"ĠDighton":10993,"oused":10994,"Ġperch":10995,"Ġperfid":10996,"Ġperchance":10997,"Ġperadventure":10998,"Ġperceives":10999,"Ġpertinent":11000,"ulled":11001,"Therein":11002,"Thereon":11003,"Thereof":11004,"Ġheadlong":11005,"Ġmeanest":11006,"liest":11007,"licts":11008,"rederick":11009,"Ġscale":11010,"Ġscared":11011,"Ġscathe":11012,"Ġscurvy":11013,"Ġpresag":11014,"Ġpreservation":11015,"ainties":11016,"gery":11017,"perly":11018,"Ġrag":11019,"Ġrav":11020,"Ġrapt":11021,"Ġraged":11022,"Ġrags":11023,"Ġraising":11024,"Ġrazed":11025,"thest":11026,"abs":11027,"aby":11028,"ablish":11029,"abouts":11030,"ĠFri":11031,"ĠFerd":11032,"ĠFollow":11033,"ĠFitzwater":11034,"Ġapple":11035,"Ġappeach":11036,"Ġcontain":11037,"Ġcontend":11038,"Ġcontains":11039,"Ġcontracted":11040,"Ġcontagion":11041,"Ġremnant":11042,"swoln":11043,"Ġuntaught":11044,"Ġuntainted":11045,"Ġunthankfulness":11046,"Ġgraceful":11047,"Ġgraceless":11048,"Ġbegn":11049,"Ġbegs":11050,"Ġeyesight":11051,"landers":11052,"Ġmaim":11053,"INAL":11054,"ĠMarquis":11055,"Ġchildhood":11056,"Letters":11057,"Shed":11058,"Ġreplen":11059,"Ġreproach":11060,"Ġreprehend":11061,"Ġwombs":11062,"wicked":11063,"Ġafire":11064,"Ġafresh":11065,"ledged":11066,"ĠJames":11067,"ĠJustice":11068,"Ġrung":11069,"Ġruff":11070,"Ġrubs":11071,"Ġrubb":11072,"Ġconsents":11073,"Ġconspire":11074,"Ġpeep":11075,"Ġleather":11076,"Ġleash":11077,"log":11078,"uckle":11079,"Ġharp":11080,"Ġresting":11081,"Ġrestless":11082,"ercharged":11083,"Ġenters":11084,"Ġentail":11085,"chest":11086,"chess":11087,"Ġsetter":11088,"Ġsetting":11089,"orship":11090,"intell":11091,"Ġbetters":11092,"rants":11093,"Ġwitless":11094,"Ġwitty":11095,"cloth":11096,"Ġsleeve":11097,"Ġsleeves":11098,"Ġrespite":11099,"Ġrescued":11100,"fty":11101,"ierced":11102,"Ġtribe":11103,"Ġtrident":11104,"Ġtrivial":11105,"Ġmoons":11106,"rets":11107,"onted":11108,"Ġgripe":11109,"Notice":11110,"Ġbestir":11111,"Ġbestrew":11112,"Ġaccent":11113,"Ġaccents":11114,"Ġaccustom":11115,"Ġfollower":11116,"uding":11117,"udge":11118,"Ġendless":11119,"Ġkindle":11120,"Ġkindest":11121,"Ġprig":11122,"Ġpurg":11123,"Ġpurity":11124,"Ġpurblind":11125,"Ġcompet":11126,"ertainties":11127,"Ġtwofold":11128,"Ġchaos":11129,"Provo":11130,"Procure":11131,"Prodig":11132,"Profess":11133,"Provided":11134,"Proportion":11135,"Profan":11136,"Ġguide":11137,"Ġguile":11138,"Ġguides":11139,"Sirs":11140,"Ġsubs":11141,"Ġsubmit":11142,"Ġsubstantial":11143,"raybe":11144,"Ġsmear":11145,"Ġsmack":11146,"Ġsmock":11147,"Ġtrack":11148,"Ġtrained":11149,"Ġtravel":11150,"Ġtrample":11151,"Ġdregs":11152,"Ġcounts":11153,"Ġcountenances":11154,"Ġfinding":11155,"twenty":11156,"Ġtreads":11157,"Ġtreasures":11158,"Ġtreasury":11159,"Ġhighly":11160,"Stabb":11161,"Ġseemed":11162,"Ġhusbandry":11163,"Ġrighteous":11164,"Ġbanns":11165,"Ġbrake":11166,"Ġbraving":11167,"Ġcheat":11168,"Ġcheques":11169,"Ġcharter":11170,"ĠCitizens":11171,"Ġbrick":11172,"Ġbriers":11173,"Ġbridle":11174,"Ġchants":11175,"Ġchannel":11176,"Ġlawless":11177,"Ġlawyers":11178,"Ġshowing":11179,"Ġconfine":11180,"Ġconfounds":11181,"Ġconfident":11182,"Ġconfisc":11183,"beit":11184,"beat":11185,"before":11186,"begu":11187,"begot":11188,"Ġcog":11189,"Ġcox":11190,"Ġcoin":11191,"Ġcoil":11192,"Ġcoven":11193,"Ġcovet":11194,"Ġcocke":11195,"Ġglance":11196,"Ġglittering":11197,"Ġimpute":11198,"Ġimposition":11199,"Ġimpreg":11200,"Ġimplore":11201,"Alla":11202,"Ġdoubly":11203,"Ġeverything":11204,"Ġmista":11205,"Ġpassages":11206,"Ġpassado":11207,"Ġlighted":11208,"Ġlightens":11209,"Doing":11210,"Dogs":11211,"Ġnativity":11212,"Ġthrongs":11213,"ĠMARCIUS":11214,"Ġpardoning":11215,"Ġbesp":11216,"Ġbeseeming":11217,"Ġbeshrew":11218,"Ġhappen":11219,"Ġdevout":11220,"Ġdevised":11221,"Ġdevoted":11222,"Ġjustices":11223,"Ġmisc":11224,"Ġmisled":11225,"Ġmisdeed":11226,"Ġmisadventure":11227,"Ġmisdoubt":11228,"ensible":11229,"Ġlasts":11230,"Ġlastly":11231,"Ġstately":11232,"bler":11233,"black":11234,"Ġmeets":11235,"Ġunderstood":11236,"Ġkills":11237,"Ġkilling":11238,"Ġcareer":11239,"Ġcarefully":11240,"Ourselves":11241,"Ġfollowed":11242,"days":11243,"Ġfarmer":11244,"Ġlessen":11245,"Ġlessons":11246,"Ġhitherward":11247,"irts":11248,"Ġshameful":11249,"Ġeyebrows":11250,"Ġfalter":11251,"Ġfalchion":11252,"Ġfoolery":11253,"Ġpatrim":11254,"Ġsunset":11255,"Ġanswering":11256,"Ġchin":11257,"Ġchoosing":11258,"Ġchurl":11259,"Unc":11260,"Unf":11261,"Unhappy":11262,"Unfold":11263,"Unsheathe":11264,"Answer":11265,"Anointed":11266,"Ġstriving":11267,"Ġstrikes":11268,"Ġstripling":11269,"Ġstrifes":11270,"ildly":11271,"Ġstreams":11272,"Ġhumours":11273,"Ġhumorous":11274,"Ġbelie":11275,"alties":11276,"Ġcourtship":11277,"Ġoverta":11278,"Ġoverboard":11279,"Ġbug":11280,"Ġbubble":11281,"Ġgrateful":11282,"Ġivy":11283,"Ġproveth":11284,"Ġplayers":11285,"Ġplayfellow":11286,"Ġsounding":11287,"Ġdrain":11288,"Ġinstinct":11289,"Ġinstigation":11290,"Ġretail":11291,"Ġthankings":11292,"Ġboil":11293,"holder":11294,"Ġvoid":11295,"Short":11296,"Ġevening":11297,"Ġcurb":11298,"Ġcurds":11299,"Ġcursing":11300,"Ġcurrish":11301,"Ġcurfew":11302,"pecting":11303,"play":11304,"plus":11305,"plight":11306,"plant":11307,"Ġmerciless":11308,"Ġwantons":11309,"Ġrevenues":11310,"Ġassay":11311,"Ġassign":11312,"Ġdoubts":11313,"Ġdoubtless":11314,"Ġtruths":11315,"Ġstrains":11316,"Ġdiscom":11317,"Ġdiscours":11318,"Ġdiscern":11319,"Almost":11320,"Att":11321,"Ġpromises":11322,"Ġpromotions":11323,"ittance":11324,"Ġcracks":11325,"Ġbeaver":11326,"Ġhangmen":11327,"Ġstrangers":11328,"Ġproudly":11329,"Ġdepends":11330,"Ġdeposing":11331,"Ġsecurity":11332,"Ġsecrecy":11333,"Twelve":11334,"compl":11335,"command":11336,"unto":11337,"Ġfreeze":11338,"Ġgreediness":11339,"POMPHEY":11340,"Ġservitor":11341,"Ġdenies":11342,"Ġdenier":11343,"Ġawaking":11344,"Ġawaken":11345,"Ġawaked":11346,"Ġmerits":11347,"Ġmerited":11348,"Ġhorseman":11349,"Herself":11350,"Herald":11351,"Ġwinning":11352,"Ġsupposes":11353,"Ġspoiled":11354,"remacy":11355,"remembered":11356,"Ġdrugs":11357,"Ġdrudge":11358,"Ġdefiance":11359,"Ġdefaced":11360,"Ġunclean":11361,"Looks":11362,"Wash":11363,"Ġaffable":11364,"Ġaffiance":11365,"Ġsinful":11366,"Ġsincerity":11367,"Ġmettle":11368,"Ġmethod":11369,"ringed":11370,"Ġmonastery":11371,"Ġgeneration":11372,"Ġgenerally":11373,"aculate":11374,"Ġsadd":11375,"Ġsaddle":11376,"Ġpurposed":11377,"Ġthroughout":11378,"ictment":11379,"mercies":11380,"Ġchoked":11381,"azz":11382,"ceeding":11383,"Ġplucking":11384,"shot":11385,"Ġlosses":11386,"noble":11387,"Ġcrystal":11388,"Ġentreats":11389,"Ġpersonally":11390,"White":11391,"Ġflying":11392,"Ġfasts":11393,"Ġfaster":11394,"Ġvisits":11395,"ĠLucy":11396,"Ġdispute":11397,"Ġremembering":11398,"Ġorders":11399,"Ġordered":11400,"Ġbolder":11401,"Ġnearness":11402,"Ġtrusted":11403,"Ġinstructed":11404,"Ġinstructions":11405,"without":11406,"Ġtouching":11407,"Ġfoundation":11408,"Ġrunn":11409,"Ġrunning":11410,"Ġrunagate":11411,"Ġwooer":11412,"Ġgrants":11413,"Ġinfidels":11414,"Ġinfallible":11415,"Became":11416,"Spur":11417,"Spread":11418,"gued":11419,"Ġwearisome":11420,"Ġreadiest":11421,"Ġdelivers":11422,"Ġdeliberate":11423,"Ġspeeds":11424,"Ġquarters":11425,"ĠNeap":11426,"ĠNathaniel":11427,"Ġmocks":11428,"Ġmocked":11429,"Ġfurlongs":11430,"Ġfurthest":11431,"Ġforemost":11432,"Ġforego":11433,"Ġforewarn":11434,"Ġfields":11435,"Ġcarver":11436,"Ġcarved":11437,"Ġcarters":11438,"Ġcarriage":11439,"Ġcarbon":11440,"Ġcarcass":11441,"Ġposture":11442,"Ġpostern":11443,"Ġjudged":11444,"Compare":11445,"Cominius":11446,"Ġparle":11447,"Ġparks":11448,"Ġparley":11449,"Ġparcels":11450,"Ġparcel":11451,"Ġparallel":11452,"Ġparagon":11453,"Ġbeholders":11454,"Ġincaged":11455,"Ġincorpor":11456,"Ġrecreation":11457,"Ġdelicious":11458,"Ġdelivered":11459,"Ġworking":11460,"Ġtenor":11461,"Ġbounds":11462,"Ġboundless":11463,"Ġdamask":11464,"Ġopenly":11465,"ĠCapel":11466,"Ġharmful":11467,"Ġguiltiness":11468,"Ġattendance":11469,"Ġattendants":11470,"OPHER":11471,"changea":11472,"Ġvein":11473,"Ġague":11474,"Ġwatching":11475,"Ġfeels":11476,"Ġdishonest":11477,"Ġdistance":11478,"Ġdistaff":11479,"Ġdistrib":11480,"Ġdistilled":11481,"Ġdistinctly":11482,"Ġtribes":11483,"Ġstrengths":11484,"Seeing":11485,"Ġacted":11486,"Ġcoral":11487,"Ġcorpse":11488,"Ġcormor":11489,"Ġstirr":11490,"Untimely":11491,"sub":11492,"supp":11493,"suffic":11494,"Ġsinging":11495,"Ġsingled":11496,"Ġpieced":11497,"Ġcloset":11498,"Ġentering":11499,"Ġbravely":11500,"neither":11501,"vouring":11502,"Ġtype":11503,"Ġwaist":11504,"Ġwaving":11505,"Ġwaft":11506,"Ġfitly":11507,"Ġfitness":11508,"Ġgarter":11509,"Ġgarish":11510,"Ġgarment":11511,"etchy":11512,"Ġweaker":11513,"Ġjests":11514,"Ġplainness":11515,"ĠThree":11516,"Ġskies":11517,"Ġskull":11518,"Ġskins":11519,"Ġsignified":11520,"Ġwiser":11521,"Ġcasting":11522,"Ġforgetfulness":11523,"Ġregent":11524,"Ġvenuto":11525,"Ġrichly":11526,"Ġwedlock":11527,"Ġdugs":11528,"Ġduellist":11529,"Ġmoveable":11530,"Ġbattlements":11531,"sheet":11532,"sheep":11533,"Ġtape":11534,"ouncing":11535,"Ġdirected":11536,"Ġladder":11537,"Ġpaying":11538,"Ġpayment":11539,"Ġgroats":11540,"Ġreduce":11541,"Ġredoubted":11542,"Ġsoftly":11543,"Ġblacker":11544,"Ġextir":11545,"Ġextol":11546,"Ġtroubles":11547,"Ġbeginning":11548,"Ġquarrels":11549,"Requ":11550,"Reward":11551,"Receive":11552,"Rebell":11553,"Ġbarber":11554,"Ġbarne":11555,"Ġdrove":11556,"Ġcrutches":11557,"Ġcrotche":11558,"Ġthrives":11559,"Ġthriving":11560,"arism":11561,"Ġworthless":11562,"Ġprivily":11563,"Ġdangerously":11564,"Ġsighing":11565,"Ġbleared":11566,"Ġinterr":11567,"Ġinterior":11568,"Ġinterpretation":11569,"Ġinterchangea":11570,"Ġundes":11571,"Ġevidence":11572,"Ġvictor":11573,"Ġvictors":11574,"ĠSirrah":11575,"ĠVolsce":11576,"Ġflattery":11577,"Ġdreaded":11578,"Ġdenying":11579,"ipodes":11580,"Ġestablish":11581,"Ġmalady":11582,"Ġmalcontent":11583,"Ġmalapert":11584,"Ġmortals":11585,"Ġbabies":11586,"Ġfraught":11587,"Ġfrailty":11588,"Ġhurry":11589,"Ġhurts":11590,"righted":11591,"spring":11592,"urally":11593,"Ġcrosses":11594,"Ġcrossing":11595,"Ġcowards":11596,"Ġlimed":11597,"Ġpenet":11598,"Ġpenalty":11599,"Ġprotection":11600,"Ġkingdoms":11601,"Ġleading":11602,"Ġlamented":11603,"Ġsuccesses":11604,"Ġsuccessful":11605,"Holding":11606,"spero":11607,"Ġbroil":11608,"Ġbroach":11609,"Ġcleave":11610,"Ġowl":11611,"Ġowed":11612,"Ġowest":11613,"Ġopport":11614,"Ġoppose":11615,"Ġoppress":11616,"Ġgalled":11617,"Ġgallows":11618,"Ġgallops":11619,"Ġforwardness":11620,"Ġangle":11621,"Ġviolation":11622,"antages":11623,"Ġprincip":11624,"Ġapprove":11625,"Ġcomplots":11626,"Ġcompliment":11627,"Ġcomplaints":11628,"butt":11629,"Ġsurfeits":11630,"Ġsurcease":11631,"Ġsurplus":11632,"Ġdestined":11633,"Ġdestroying":11634,"Ġscarf":11635,"Ġscarr":11636,"Ġdeparting":11637,"Ġdeparted":11638,"Ġpossessions":11639,"Conceiving":11640,"Convenient":11641,"Ġbene":11642,"Ġbasely":11643,"Ġbirthright":11644,"Ġfilling":11645,"Ġlabours":11646,"Ġlaboured":11647,"Ġformal":11648,"Ġformally":11649,"Ġeasier":11650,"Ġperformed":11651,"Ġwrites":11652,"Stays":11653,"Abate":11654,"Abbot":11655,"ggar":11656,"ggest":11657,"Ġuttered":11658,"Ġmilder":11659,"Ġwilderness":11660,"reading":11661,"Ġcape":11662,"Ġcavil":11663,"semble":11664,"Ġinsur":11665,"Ġinside":11666,"Ġinsatiate":11667,"Ġinsensible":11668,"Ġshades":11669,"ĠStill":11670,"ĠStephen":11671,"Ġquietly":11672,"Ġquietness":11673,"Ġproceeds":11674,"Ġproceeding":11675,"Ġadmire":11676,"Ġadmits":11677,"Ġadmired":11678,"Ġadmiring":11679,"Ġadmonition":11680,"Margaret":11681,"Ġapish":11682,"Ġapology":11683,"Ġshipp":11684,"Ġshift":11685,"Ġshoot":11686,"Ġmedd":11687,"Ġmedlar":11688,"Ġwalking":11689,"Ġfamed":11690,"Ġhapless":11691,"Ġforswore":11692,"Ġnobody":11693,"Ġfavourites":11694,"Ġblowing":11695,"Ġuncrown":11696,"Ġunconstant":11697,"Ġunknit":11698,"ighbour":11699,"Ġleisurely":11700,"Ġforbids":11701,"counterfeit":11702,"Intends":11703,"Intended":11704,"Ġsorted":11705,"Ġcrupper":11706,"Ġlances":11707,"Ġlisten":11708,"Ġstories":11709,"Ġrefer":11710,"Ġrefresh":11711,"Ġreflect":11712,"Ġseconds":11713,"Ġtemporiz":11714,"Dead":11715,"Enjoy":11716,"Enforced":11717,"Pronounce":11718,"Princes":11719,"Subject":11720,"Success":11721,"Suggest":11722,"Ġtenth":11723,"Ġmutual":11724,"Ġmutually":11725,"Ġmutinies":11726,"Ġmutton":11727,"Ġfinely":11728,"Ġdrowned":11729,"Ġlowest":11730,"Ġpettic":11731,"Ġbended":11732,"Ġbells":11733,"Ġindu":11734,"Ġindust":11735,"Ġinduced":11736,"Ġindignation":11737,"Ġindictment":11738,"Ġstealing":11739,"Ġstealth":11740,"Ġconquered":11741,"Ġproclaimed":11742,"Ġexcused":11743,"Ġexcuses":11744,"Ġdoubled":11745,"Ġdoublets":11746,"Ġwisdoms":11747,"Below":11748,"denly":11749,"Ġmounted":11750,"Ġmountains":11751,"Ġfeign":11752,"Ġfeigned":11753,"Ġcaptives":11754,"Ġpunk":11755,"Ġpuny":11756,"Ġpunished":11757,"Ġhairs":11758,"Ġstudying":11759,"Ġmannerly":11760,"Ġenjoying":11761,"Ġrange":11762,"Ġranks":11763,"Ġabroach":11764,"Ġcontrar":11765,"Ġcontinued":11766,"Ġcontinuance":11767,"Ġdespairing":11768,"Ġstrucken":11769,"Dispose":11770,"Dismiss":11771,"eys":11772,"Ġteaching":11773,"Ġsimpl":11774,"Ġcorns":11775,"Ġcredent":11776,"Ġcredulous":11777,"Ġunprepare":11778,"Ġunpitied":11779,"Ġunparallel":11780,"Ġunwise":11781,"Ġunwieldy":11782,"Ġunwholesome":11783,"Ġunwonted":11784,"Ġprovince":11785,"Ġprovision":11786,"Ġaccounted":11787,"Ġpriests":11788,"Ġguards":11789,"Ġcruelty":11790,"falling":11791,"hearts":11792,"Ġwailing":11793,"Ġdwellest":11794,"Ġpacking":11795,"Ġpackthread":11796,"Ġgavest":11797,"Ġgentleness":11798,"Ġbutcheries":11799,"Ġunsk":11800,"Ġunsway":11801,"Ġunsuspect":11802,"Ġenvying":11803,"Ġridges":11804,"Ġadders":11805,"Ġaddition":11806,"Ġextremities":11807,"Ġbenefactors":11808,"Ġlaughing":11809,"Negle":11810,"Neighbours":11811,"grand":11812,"Ġverily":11813,"Ġveriest":11814,"Ġverified":11815,"Ġverdict":11816,"Ġwreak":11817,"Ġwreaths":11818,"Ġfirmament":11819,"Ġholes":11820,"velling":11821,"Ġincline":11822,"Ġformerly":11823,"Ġeased":11824,"Ġrelent":11825,"Ġdealings":11826,"Ġsportful":11827,"Ġconveyance":11828,"ĠBarnet":11829,"Ġarrive":11830,"Ġunbruised":11831,"ĠHerbert":11832,"ĠHerald":11833,"Ġrooted":11834,"Ġimages":11835,"Ġimagined":11836,"Ġsmoke":11837,"Ġfellowship":11838,"Ġcovering":11839,"Ġacquit":11840,"Ġschoolboy":11841,"ALL":11842,"Black":11843,"Bliss":11844,"Blush":11845,"Bloody":11846,"Desire":11847,"Desires":11848,"Deserved":11849,"Deserve":11850,"Deserves":11851,"Despite":11852,"Exeter":11853,"Examine":11854,"Tutor":11855,"afternoon":11856,"conf":11857,"Ġbaits":11858,"Ġbaited":11859,"Ġdullest":11860,"Ġstables":11861,"ĠAlack":11862,"ĠAlbion":11863,"therea":11864,"therein":11865,"Ġimports":11866,"Ġimportance":11867,"Ġimportuned":11868,"Ado":11869,"Henceforth":11870,"Henceforward":11871,"moreland":11872,"Ġeduc":11873,"Ġfingering":11874,"Ġcustomary":11875,"Ġgrossly":11876,"Ġinformation":11877,"Ġelected":11878,"Ġeagles":11879,"Ġdecreed":11880,"Ġallowing":11881,"Ġallowed":11882,"Ġnecessaries":11883,"Ġknights":11884,"Ġshrill":11885,"Ġsailor":11886,"Ġrobbed":11887,"Ġrobbery":11888,"Ġrocky":11889,"Ġcommendable":11890,"Ġrudely":11891,"Ġassisted":11892,"Ġdelightful":11893,"Ġlanguish":11894,"Ġcircled":11895,"CHRIST":11896,"Resign":11897,"Resolved":11898,"Resolve":11899,"Turns":11900,"active":11901,"dyed":11902,"Ġesp":11903,"Ġespecially":11904,"Ġdurance":11905,"Ġcreep":11906,"Ġcreeping":11907,"Ġnumbering":11908,"Ġlargess":11909,"Ġhidden":11910,"riously":11911,"Ġstarved":11912,"ashion":11913,"Ġdews":11914,"Ġsharper":11915,"Ġconjur":11916,"Ġconjured":11917,"ĠSicils":11918,"Ġchiefly":11919,"Ġconducted":11920,"Ġprotectors":11921,"Ġpublish":11922,"Perform":11923,"appearing":11924,"flies":11925,"flayed":11926,"proof":11927,"ubbering":11928,"Ġerr":11929,"Ġirks":11930,"Ġtortures":11931,"Ġtortoise":11932,"Ġbonds":11933,"Ġdetain":11934,"Ġcambric":11935,"Ġtopmast":11936,"Ġinfectious":11937,"Ġequally":11938,"Ġstored":11939,"Ġsupremacy":11940,"running":11941,"Ġshuts":11942,"Ġsways":11943,"Ġbrooks":11944,"Ġrashly":11945,"Ġrashness":11946,"Ġdisdains":11947,"Ġexcellence":11948,"Ġtransform":11949,"Ġaffects":11950,"Ġaffecting":11951,"Ġaccusers":11952,"Ġpursuing":11953,"Ġpursuivant":11954,"Ġchairs":11955,"Ġdispositions":11956,"Ġconquerors":11957,"Ġspecially":11958,"Knowing":11959,"Prefix":11960,"Retire":11961,"Scorn":11962,"Shake":11963,"large":11964,"parable":11965,"weighs":11966,"Ġtutors":11967,"Ġmurderers":11968,"Ġwoodcock":11969,"Ġballads":11970,"Ġbuds":11971,"Ġfleece":11972,"Ġcensured":11973,"Ġcensures":11974,"Ġcupbearer":11975,"Ġpurest":11976,"Ġbewitch":11977,"Ġmended":11978,"Ġweighing":11979,"queath":11980,"olerable":11981,"Ġargues":11982,"ĠProvost":11983,"ĠProspero":11984,"Ġdissolute":11985,"Ġdissolved":11986,"Ġdissentious":11987,"Ġdissolve":11988,"Ġdissension":11989,"Ġdissolution":11990,"Ġexpected":11991,"Ġadopted":11992,"ĠFlav":11993,"Ġcourageous":11994,"Ġpersuasion":11995,"Ġacceptance":11996,"Ġgroaning":11997,"Ġsolemnly":11998,"bearing":11999,"valued":12000,"Ġtestify":12001,"Ġmagn":12002,"Ġcockle":12003,"Ġcockatri":12004,"Ġhostile":12005,"Ġhunting":12006,"Ġobserve":12007,"Ġpolitic":12008,"Ġrepeat":12009,"ĠCanst":12010,"Ġshuns":12011,"Ġconcern":12012,"Ġqualified":12013,"Ġadversary":12014,"Ġcloven":12015,"Ġcloister":12016,"Ġwhores":12017,"Ġimmod":12018,"Ġpurchased":12019,"Ġimpossib":12020,"Ġmaidenheads":12021,"Ġtemperance":12022,"Ġincreaseth":12023,"Ġcomplaining":12024,"Ġearnestness":12025,"Consort":12026,"Longer":12027,"bridge":12028,"kerchief":12029,"lawfully":12030,"pulous":12031,"ucement":12032,"Ġsquire":12033,"Ġsquared":12034,"Ġsouthward":12035,"Ġmillion":12036,"Ġmillstones":12037,"regia":12038,"Ġfigured":12039,"Ġfurnished":12040,"Ġdigg":12041,"Ġchattering":12042,"Ġparentage":12043,"Ġbefell":12044,"Ġmeantime":12045,"Ġrecomfort":12046,"Ġwillingness":12047,"Ġcombine":12048,"Ġcombined":12049,"Ġswells":12050,"ĠBehold":12051,"Ġprovoke":12052,"ĠAdrian":12053,"Ġconsidering":12054,"Ġcompanions":12055,"Strive":12056,"Ġbrawls":12057,"Ġbuilds":12058,"Ġbuildeth":12059,"Ġintelligen":12060,"Ġrecorded":12061,"Ġwaiting":12062,"Ġgarlands":12063,"Ġforbearance":12064,"Ġopposers":12065,"Ġfamously":12066,"Supposing":12067,"ĠConspirators":12068,"Account":12069,"Keeps":12070,"desire":12071,"shalt":12072,"shaped":12073,"wearied":12074,"Ġingrateful":12075,"Ġingratitude":12076,"Ġingenious":12077,"Ġaptly":12078,"Ġsalve":12079,"Ġsalutation":12080,"Ġmultip":12081,"Ġmultitud":12082,"Ġfunctions":12083,"Ġfuneral":12084,"Ġdrive":12085,"Ġpotent":12086,"Ġpotency":12087,"Ġinquired":12088,"Ġmelting":12089,"Ġmelted":12090,"Ġforsaken":12091,"Ġstinging":12092,"Ġstoutness":12093,"ĠLeicester":12094,"Softly":12095,"ĠDeucal":12096,"ĠDecember":12097,"Ġwrinkle":12098,"Ġwrinkles":12099,"Ġrusty":12100,"Ġcharacters":12101,"Ġsmells":12102,"Ġbracelet":12103,"Ġsecurely":12104,"Ġafflicted":12105,"shoulder":12106,"Ġagreeing":12107,"Ġcorrect":12108,"Ġprettily":12109,"Ġshields":12110,"Ġrejoicing":12111,"Condition":12112,"Draws":12113,"Flower":12114,"Flatter":12115,"Immediate":12116,"Quit":12117,"Rivers":12118,"Sometimes":12119,"access":12120,"bodied":12121,"faith":12122,"footed":12123,"longeth":12124,"monger":12125,"news":12126,"thank":12127,"warm":12128,"Ġmiracle":12129,"Ġwidower":12130,"Ġwestward":12131,"hands":12132,"Ġbuckler":12133,"Ġdifferent":12134,"Ġhorns":12135,"Ġgrudge":12136,"Ġsteer":12137,"Ġsticks":12138,"Ġreceiving":12139,"Ġdeclined":12140,"Ġdeclines":12141,"Ġdeclining":12142,"Ġshamest":12143,"Ġshamef":12144,"Ġsucceeding":12145,"Ġsucceeders":12146,"Ġfactor":12147,"Ġfawns":12148,"Ġneglected":12149,"Ġvariable":12150,"Ġvillanous":12151,"Ġvolumes":12152,"Ġshrieks":12153,"Ġmanifested":12154,"Ġunwillingly":12155,"ĠVenus":12156,"ĠTarquin":12157,"Ġscandalous":12158,"Ġcarelessly":12159,"Ġgratify":12160,"Ġgratulate":12161,"Ġcurtains":12162,"Ġcrafts":12163,"Ġprophetess":12164,"Ġsubstitutes":12165,"Ġrevolted":12166,"Ġconcealment":12167,"Awake":12168,"Courageous":12169,"URE":12170,"cestershire":12171,"pretty":12172,"tender":12173,"Ġtouches":12174,"Ġtrodden":12175,"Ġtigers":12176,"Ġtails":12177,"Ġmethoughts":12178,"Ġbonnet":12179,"Ġfixed":12180,"Ġdateless":12181,"Ġnettles":12182,"Ġnicely":12183,"Ġlucky":12184,"Ġluckless":12185,"Ġpedigree":12186,"Ġpageant":12187,"celsa":12188,"Ġstomachs":12189,"Ġspectators":12190,"ĠGreek":12191,"Ġornament":12192,"ĠScroop":12193,"Ġarrested":12194,"Ġunstain":12195,"Ġunfelt":12196,"Ġwormwood":12197,"Ġengine":12198,"Ġdisgracious":12199,"Ġbeguile":12200,"Ġbegetting":12201,"Ġcollected":12202,"Ġdepending":12203,"Ġmonarchy":12204,"Ġsufficiency":12205,"Ġestimate":12206,"Ġsacrificed":12207,"Plays":12208,"Ġrankle":12209,"Ġcoverture":12210,"Ġapprehends":12211,"Ġmoralize":12212,"Adding":12213,"Engage":12214,"Falsely":12215,"Namely":12216,"Wrath":12217,"conscience":12218,"friend":12219,"prayers":12220,"winged":12221,"Ġtackle":12222,"Ġaudience":12223,"Ġaudible":12224,"Ġsedition":12225,"Ġsedges":12226,"Ġsessions":12227,"Ġmourner":12228,"Ġmoulded":12229,"Ġbruising":12230,"Ġbolt":12231,"Ġbolted":12232,"Ġfinest":12233,"Ġfinish":12234,"Ġfeverous":12235,"Ġlouring":12236,"Ġpillow":12237,"Ġpalmers":12238,"ĠIniquity":12239,"Ġgapes":12240,"Ġinvite":12241,"Ġdemi":12242,"Ġdemesnes":12243,"Ġanchors":12244,"Ġshrug":12245,"ĠEmperor":12246,"Ġshelves":12247,"Ġgossip":12248,"Ġhoarse":12249,"ĠWelshman":12250,"Ġencamp":12251,"Ġdescant":12252,"Ġdescried":12253,"Ġslippery":12254,"Ġpreferment":12255,"perienced":12256,"Ġlectures":12257,"Ġtraveller":12258,"Ġtrencher":12259,"Ġcopy":12260,"Ġcopest":12261,"Ġattainder":12262,"Ġprompts":12263,"Ġcramps":12264,"Ġdivorced":12265,"Ġembraces":12266,"Ġinsolent":12267,"Ġobsequious":12268,"Ġtestimon":12269,"Ġneglecting":12270,"Ġheralds":12271,"Accept":12272,"Caesar":12273,"Divine":12274,"Gramercies":12275,"Relent":12276,"besides":12277,"locks":12278,"missive":12279,"obst":12280,"sentenced":12281,"tino":12282,"tongues":12283,"tongued":12284,"whom":12285,"Ġmasks":12286,"Ġbottle":12287,"Ġbottled":12288,"Ġfrequent":12289,"Ġfountain":12290,"Ġdoting":12291,"Ġdotard":12292,"enedicite":12293,"Ġlingering":12294,"Ġthwack":12295,"Ġpanting":12296,"Ġpictures":12297,"Ġgusts":12298,"Ġstaggers":12299,"Ġrevived":12300,"Ġassembly":12301,"Ġvials":12302,"Ġunlikely":12303,"ĠWestmoreland":12304,"Ġalarum":12305,"Ġalarums":12306,"Ġexceeds":12307,"Ġclerk":12308,"Ġtrimm":12309,"Ġcontrive":12310,"Ġcontrived":12311,"Ġeverlastingly":12312,"Ġpeerless":12313,"Ġbestrid":12314,"Ġbestride":12315,"Ġaccompanied":12316,"Ġcompounded":12317,"Ġchampions":12318,"Ġbrands":12319,"Ġconfederates":12320,"Ġmischiefs":12321,"Ġpatroness":12322,"Ġcrabbed":12323,"Ġdistraught":12324,"Ġcrimson":12325,"Ġinterrupted":12326,"Ġinsinuating":12327,"Ġunlucky":12328,"Ġmagistrates":12329,"Ġstewardship":12330,"Ġunwillingness":12331,"Ġsurprise":12332,"Ġfantastic":12333,"Affliction":12334,"Boldly":12335,"Endured":12336,"Present":12337,"Sicinius":12338,"Sicilia":12339,"burthen":12340,"court":12341,"country":12342,"countenance":12343,"judged":12344,"knock":12345,"malice":12346,"occup":12347,"occasion":12348,"opsa":12349,"phin":12350,"presently":12351,"points":12352,"speech":12353,"Ġireful":12354,"Ġtumbled":12355,"Ġmuffle":12356,"Ġmuffled":12357,"Ġfetter":12358,"Ġfulfil":12359,"Ġdominions":12360,"Ġdedicate":12361,"Ġdieted":12362,"Ġcushion":12363,"Ġcushions":12364,"strains":12365,"Ġgazing":12366,"Ġgrumbling":12367,"Ġliquor":12368,"Ġliquid":12369,"Ġdefects":12370,"Ġdoctors":12371,"Ġdoctrine":12372,"Ġbutterfly":12373,"Ġsequel":12374,"Ġsuggested":12375,"thwart":12376,"thwack":12377,"Ġanswers":12378,"Ġanswered":12379,"Ġsparks":12380,"Ġnegligence":12381,"Ġnegligent":12382,"ĠRoger":12383,"ĠRobert":12384,"Ġviand":12385,"Ġviper":12386,"Ġamendment":12387,"ĠBeseech":12388,"ĠBesides":12389,"Ġarguing":12390,"Ġargued":12391,"Ġarbitrate":12392,"Ġgrafted":12393,"Ġprogress":12394,"ĠArgier":12395,"ĠArchbishop":12396,"Ġabstinence":12397,"Ġabode":12398,"Ġexactly":12399,"Ġexperienced":12400,"Ġriddle":12401,"Ġperdition":12402,"Ġperfume":12403,"Ġperfumed":12404,"Ġtradesmen":12405,"Ġscruple":12406,"Ġappointment":12407,"Ġchapel":12408,"Ġchests":12409,"Ġimpartial":12410,"Ġimpudent":12411,"Ġboatswain":12412,"Ġstraitly":12413,"Ġprofanation":12414,"Ġdishonours":12415,"Ġembassage":12416,"ĠChristophero":12417,"Ġadmiral":12418,"Ġindirectly":12419,"Ġfeatly":12420,"Ġcontradict":12421,"Ġcontradiction":12422,"Ġholiday":12423,"Ġholidame":12424,"Ġreligion":12425,"Ġreligious":12426,"ĠFlorent":12427,"ĠFlorence":12428,"Ġgreyhound":12429,"Ġgreyhounds":12430,"Ġsyllable":12431,"Ġsyllables":12432,"Ġsuperfluous":12433,"Ġsuperfluity":12434,"Ġdisobedience":12435,"Ġdisobedient":12436,"Ġsinews":12437,"Ġcuckolds":12438,"Bestride":12439,"Chide":12440,"Doubly":12441,"Drop":12442,"Eleven":12443,"Golden":12444,"Haply":12445,"Nightly":12446,"Pitchers":12447,"Saddle":12448,"Self":12449,"Slander":12450,"Trans":12451,"Tremble":12452,"often":12453,"silver":12454,"service":12455,"ville":12456,"winds":12457,"ĠĠčĊ":12458,"Ġtilth":12459,"Ġaugment":12460,"Ġausterity":12461,"Ġmotive":12462,"Ġmingle":12463,"Ġmassacre":12464,"Ġwrapt":12465,"Ġbaleful":12466,"Ġbounteous":12467,"Ġcedar":12468,"Ġcasque":12469,"Ġcelebr":12470,"Ġlechery":12471,"Ġthrall":12472,"Ġthreshold":12473,"Ġostentation":12474,"Ġocean":12475,"Ġpheasant":12476,"Ġpirate":12477,"Ġpuling":12478,"Ġpensive":12479,"Ġpalsied":12480,"Ġglean":12481,"Ġgilded":12482,"Ġgorgeous":12483,"Ġbehove":12484,"Ġhabiliments":12485,"lexander":12486,"Ġfornication":12487,"Ġeggs":12488,"Ġelbow":12489,"Ġewes":12490,"Ġstalls":12491,"Ġstinted":12492,"Ġkernels":12493,"Ġreversion":12494,"Ġreleased":12495,"Ġdolour":12496,"Ġsemblance":12497,"Ġseventeen":12498,"Ġsurety":12499,"Ġherdsmen":12500,"Ġspotless":12501,"ĠCytherea":12502,"ĠCotus":12503,"Ġvestal":12504,"Ġwheresoe":12505,"icanor":12506,"Ġconverts":12507,"Ġconversation":12508,"Ġconvented":12509,"Ġblasphem":12510,"ĠGuildhall":12511,"Ġcannibals":12512,"ershades":12513,"ĠBreton":12514,"Ġungrateful":12515,"Ġungracious":12516,"Ġuniversal":12517,"Ġunthrifty":12518,"Ġjolly":12519,"Ġproverb":12520,"ĠPilate":12521,"ĠPriami":12522,"Ġplenteous":12523,"Ġenrolled":12524,"Ġoutstret":12525,"ĠAfric":12526,"Ġdiscipline":12527,"Ġexhales":12528,"Ġripest":12529,"Ġadulter":12530,"Ġpresumption":12531,"Ġprescription":12532,"Ġcontempl":12533,"ĠJudas":12534,"Ġendeavours":12535,"Prosperity":12536,"Ġtragedy":12537,"Stirr":12538,"Ġbraggart":12539,"Ġglistering":12540,"Ġmiscarried":12541,"Ġundertaking":12542,"Unworthy":12543,"Ġstreaks":12544,"Ġattentive":12545,"Ġwelcomed":12546,"Ġstrangeness":12547,"comfortable":12548,"Ġtemperately":12549,"Ġinfluences":12550,"Ġquarrelling":12551,"Ġexecuting":12552,"Ġparchment":12553,"Ġvehement":12554,"Ġstirrup":12555,"ĠThinkest":12556,"Ġbarbarism":12557,"Ġcradle":12558,"Ġexpostulate":12559,"spoken":12560,"Plainly":12561,"Ġcauser":12562,"Ġtemporal":12563,"Environed":12564,"Ġcounterpoised":12565,"Despised":12566,"Ġwagoner":12567,"Ġescaped":12568,"apparell":12569,"Ġvanquish":12570,"Ġtransgression":12571,"Ġbasilisk":12572,"Ġambassador":12573,"execution":12574,"Ġsympathy":12575,"Ġdifferences":12576,"Ġunreverent":12577,"Ġencouragement":12578,"Ġmasquers":12579,"Ġclergymen":12580,"Erroneous":12581,"ĠAmazonian":12582,"FRANCISCA":12583,"dangerous":12584,"Ġtumultuous":12585,"Ġsulphurous":12586,"Ġviolets":12587,"Bootless":12588,"Change":12589,"CARDINAL":12590,"Crowns":12591,"Culling":12592,"Certainly":12593,"Counsel":12594,"Drawn":12595,"Delay":12596,"Laugh":12597,"Monday":12598,"Mercutio":12599,"Montague":12600,"Marshal":12601,"Poison":12602,"Pompey":12603,"Pretty":12604,"Sheriff":12605,"Thieves":12606,"Tendering":12607,"TITUS":12608,"Visit":12609,"Vincetino":12610,"better":12611,"delivered":12612,"pillars":12613,"persuasion":12614,"Ġtarget":12615,"Ġaediles":12616,"Ġautumn":12617,"Ġauspicious":12618,"Ġscepter":12619,"Ġsouthern":12620,"Ġmalmsey":12621,"Ġmattock":12622,"instru":12623,"Ġbisson":12624,"Ġbitterest":12625,"Ġfourscore":12626,"Ġdaffodils":12627,"Ġcodpiece":12628,"Ġcottage":12629,"Ġcaterpillars":12630,"Ġcypress":12631,"Ġnimbly":12632,"Ġhuntsmen":12633,"Ġhypoc":12634,"Ġponderous":12635,"Ġphrase":12636,"annibal":12637,"Ġgasping":12638,"Ġgeese":12639,"Ġgillyvors":12640,"Ġghastly":12641,"Ġindex":12642,"Ġinexorable":12643,"Ġinhuman":12644,"Ġhaggard":12645,"learned":12646,"ithmetic":12647,"Ġwealthily":12648,"Ġeastern":12649,"Ġstamps":12650,"Ġstatesman":12651,"Ġlibrary":12652,"Ġsprang":12653,"ĠCheerly":12654,"Ġnephew":12655,"ĠRedeemer":12656,"Ġcomforter":12657,"ĠMortimer":12658,"ĠMONTAGUE":12659,"ĠMamillius":12660,"ĠMEASURE":12661,"ĠMiranda":12662,"ĠGloucestershire":12663,"ĠLibya":12664,"Ġorisons":12665,"ĠSuffolk":12666,"ĠBERKELEY":12667,"Ġarrogance":12668,"Ġlethargy":12669,"Ġunfortunate":12670,"Ġunspeakable":12671,"orthampton":12672,"ĠVarrius":12673,"Ġprolix":12674,"AUGHAN":12675,"Ġencompass":12676,"Ġencounters":12677,"Ġfrivolous":12678,"ĠAbraham":12679,"ĠAutolycus":12680,"ĠYorkshire":12681,"Ġexamples":12682,"agabond":12683,"Ġribbons":12684,"Ġpredominant":12685,"Ġprecipitation":12686,"Ġprenzie":12687,"Ġpredecessors":12688,"ĠFerdinand":12689,"Prodigious":12690,"beguile":12691,"Ġcockerel":12692,"Ġimpregnable":12693,"Ġpatrimony":12694,"Ġdiscourses":12695,"Ġaffianced":12696,"ĠNeapolitan":12697,"Ġincorporate":12698,"Ġcormorant":12699,"Ġcrotchets":12700,"Ġinterchangeably":12701,"Ġprincipal":12702,"Ġpetticoat":12703,"Ġunprepared":12704,"Ġunsuspected":12705,"Ġschoolboys":12706,"Ġeducation":12707,"CHRISTOPHER":12708,"ĠFlavius":12709,"Ġcockatrice":12710,"ĠDeucalion":12711}